{
  "version": "1.0",
  "truncation": {
    "direction": "Right",
    "max_length": 128,
    "strategy": "LongestFirst",
    "stride": 0
  },
  "padding": {
    "strategy": {
      "Fixed": 128
    },
    "direction": "Right",
    "pad_to_multiple_of": null,
    "pad_id": 2,
    "pad_type_id": 0,
    "pad_token": "[PAD]"
  },
  "added_tokens": [
    {
      "id": 0,
      "content": "[MASK]",
      "single_word": false,
      "lstrip": false,
      "rstrip": false,
      "normalized": false,
      "special": true
    },
    {
      "id": 1,
      "content": "[CLS]",
      "single_word": false,
      "lstrip": false,
      "rstrip": false,
      "normalized": false,
      "special": true
    },
    {
      "id": 2,
      "content": "[PAD]",
      "single_word": false,
      "lstrip": false,
      "rstrip": false,
      "normalized": false,
      "special": true
    },
    {
      "id": 3,
      "content": "[UNK]",
      "single_word": false,
      "lstrip": false,
      "rstrip": false,
      "normalized": false,
      "special": true
    },
    {
      "id": 4,
      "content": "[SEP]",
      "single_word": false,
      "lstrip": false,
      "rstrip": false,
      "normalized": false,
      "special": true
    },
    {
      "id": 5,
      "content": "  ",
      "single_word": false,
      "lstrip": false,
      "rstrip": false,
      "normalized": false,
      "special": true
    },
    {
      "id": 6,
      "content": "   ",
      "single_word": false,
      "lstrip": false,
      "rstrip": false,
      "normalized": false,
      "special": true
    },
    {
      "id": 7,
      "content": "    ",
      "single_word": false,
      "lstrip": false,
      "rstrip": false,
      "normalized": false,
      "special": true
    },
    {
      "id": 8,
      "content": "     ",
      "single_word": false,
      "lstrip": false,
      "rstrip": false,
      "normalized": false,
      "special": true
    },
    {
      "id": 9,
      "content": "      ",
      "single_word": false,
      "lstrip": false,
      "rstrip": false,
      "normalized": false,
      "special": true
    },
    {
      "id": 10,
      "content": "       ",
      "single_word": false,
      "lstrip": false,
      "rstrip": false,
      "normalized": false,
      "special": true
    },
    {
      "id": 11,
      "content": "        ",
      "single_word": false,
      "lstrip": false,
      "rstrip": false,
      "normalized": false,
      "special": true
    },
    {
      "id": 12,
      "content": "         ",
      "single_word": false,
      "lstrip": false,
      "rstrip": false,
      "normalized": false,
      "special": true
    },
    {
      "id": 13,
      "content": "          ",
      "single_word": false,
      "lstrip": false,
      "rstrip": false,
      "normalized": false,
      "special": true
    },
    {
      "id": 14,
      "content": "           ",
      "single_word": false,
      "lstrip": false,
      "rstrip": false,
      "normalized": false,
      "special": true
    },
    {
      "id": 15,
      "content": "            ",
      "single_word": false,
      "lstrip": false,
      "rstrip": false,
      "normalized": false,
      "special": true
    },
    {
      "id": 16,
      "content": "             ",
      "single_word": false,
      "lstrip": false,
      "rstrip": false,
      "normalized": false,
      "special": true
    },
    {
      "id": 17,
      "content": "              ",
      "single_word": false,
      "lstrip": false,
      "rstrip": false,
      "normalized": false,
      "special": true
    },
    {
      "id": 18,
      "content": "               ",
      "single_word": false,
      "lstrip": false,
      "rstrip": false,
      "normalized": false,
      "special": true
    },
    {
      "id": 19,
      "content": "                ",
      "single_word": false,
      "lstrip": false,
      "rstrip": false,
      "normalized": false,
      "special": true
    },
    {
      "id": 20,
      "content": "                 ",
      "single_word": false,
      "lstrip": false,
      "rstrip": false,
      "normalized": false,
      "special": true
    },
    {
      "id": 21,
      "content": "                  ",
      "single_word": false,
      "lstrip": false,
      "rstrip": false,
      "normalized": false,
      "special": true
    },
    {
      "id": 22,
      "content": "                   ",
      "single_word": false,
      "lstrip": false,
      "rstrip": false,
      "normalized": false,
      "special": true
    },
    {
      "id": 23,
      "content": "                    ",
      "single_word": false,
      "lstrip": false,
      "rstrip": false,
      "normalized": false,
      "special": true
    },
    {
      "id": 24,
      "content": "                     ",
      "single_word": false,
      "lstrip": false,
      "rstrip": false,
      "normalized": false,
      "special": true
    },
    {
      "id": 25,
      "content": "                      ",
      "single_word": false,
      "lstrip": false,
      "rstrip": false,
      "normalized": false,
      "special": true
    },
    {
      "id": 26,
      "content": "                       ",
      "single_word": false,
      "lstrip": false,
      "rstrip": false,
      "normalized": false,
      "special": true
    },
    {
      "id": 27,
      "content": "                        ",
      "single_word": false,
      "lstrip": false,
      "rstrip": false,
      "normalized": false,
      "special": true
    }
  ],
  "normalizer": {
    "type": "NFC"
  },
  "pre_tokenizer": {
    "type": "ByteLevel",
    "add_prefix_space": false,
    "trim_offsets": true,
    "use_regex": true
  },
  "post_processor": {
    "type": "TemplateProcessing",
    "single": [
      {
        "SpecialToken": {
          "id": "[CLS]",
          "type_id": 0
        }
      },
      {
        "Sequence": {
          "id": "A",
          "type_id": 0
        }
      },
      {
        "SpecialToken": {
          "id": "[SEP]",
          "type_id": 0
        }
      }
    ],
    "pair": [
      {
        "SpecialToken": {
          "id": "[CLS]",
          "type_id": 0
        }
      },
      {
        "Sequence": {
          "id": "A",
          "type_id": 0
        }
      },
      {
        "SpecialToken": {
          "id": "[SEP]",
          "type_id": 0
        }
      },
      {
        "Sequence": {
          "id": "B",
          "type_id": 1
        }
      },
      {
        "SpecialToken": {
          "id": "[SEP]",
          "type_id": 1
        }
      }
    ],
    "special_tokens": {
      "[CLS]": {
        "id": "[CLS]",
        "ids": [
          1
        ],
        "tokens": [
          "[CLS]"
        ]
      },
      "[SEP]": {
        "id": "[SEP]",
        "ids": [
          4
        ],
        "tokens": [
          "[SEP]"
        ]
      }
    }
  },
  "decoder": {
    "type": "ByteLevel",
    "add_prefix_space": false,
    "trim_offsets": true,
    "use_regex": true
  },
  "model": {
    "type": "BPE",
    "dropout": null,
    "unk_token": null,
    "continuing_subword_prefix": null,
    "end_of_word_suffix": null,
    "fuse_unk": false,
    "byte_fallback": false,
    "ignore_merges": false,
    "vocab": {
      "[MASK]": 0,
      "[CLS]": 1,
      "[PAD]": 2,
      "[UNK]": 3,
      "[SEP]": 4,
      "  ": 5,
      "   ": 6,
      "    ": 7,
      "     ": 8,
      "      ": 9,
      "       ": 10,
      "        ": 11,
      "         ": 12,
      "          ": 13,
      "           ": 14,
      "            ": 15,
      "             ": 16,
      "              ": 17,
      "               ": 18,
      "                ": 19,
      "                 ": 20,
      "                  ": 21,
      "                   ": 22,
      "                    ": 23,
      "                     ": 24,
      "                      ": 25,
      "                       ": 26,
      "                        ": 27,
      "!": 28,
      "\"": 29,
      "#": 30,
      "$": 31,
      "%": 32,
      "&": 33,
      "'": 34,
      "(": 35,
      ")": 36,
      "*": 37,
      "+": 38,
      ",": 39,
      "-": 40,
      ".": 41,
      "/": 42,
      "0": 43,
      "1": 44,
      "2": 45,
      "3": 46,
      "4": 47,
      "5": 48,
      "6": 49,
      "7": 50,
      "8": 51,
      "9": 52,
      ":": 53,
      ";": 54,
      "<": 55,
      "=": 56,
      ">": 57,
      "?": 58,
      "@": 59,
      "A": 60,
      "B": 61,
      "C": 62,
      "D": 63,
      "E": 64,
      "F": 65,
      "G": 66,
      "H": 67,
      "I": 68,
      "J": 69,
      "K": 70,
      "L": 71,
      "M": 72,
      "N": 73,
      "O": 74,
      "P": 75,
      "Q": 76,
      "R": 77,
      "S": 78,
      "T": 79,
      "U": 80,
      "V": 81,
      "W": 82,
      "X": 83,
      "Y": 84,
      "Z": 85,
      "[": 86,
      "\\": 87,
      "]": 88,
      "^": 89,
      "_": 90,
      "`": 91,
      "a": 92,
      "b": 93,
      "c": 94,
      "d": 95,
      "e": 96,
      "f": 97,
      "g": 98,
      "h": 99,
      "i": 100,
      "j": 101,
      "k": 102,
      "l": 103,
      "m": 104,
      "n": 105,
      "o": 106,
      "p": 107,
      "q": 108,
      "r": 109,
      "s": 110,
      "t": 111,
      "u": 112,
      "v": 113,
      "w": 114,
      "x": 115,
      "y": 116,
      "z": 117,
      "{": 118,
      "|": 119,
      "}": 120,
      "~": 121,
      "¡": 122,
      "¢": 123,
      "£": 124,
      "¤": 125,
      "¥": 126,
      "¦": 127,
      "§": 128,
      "¨": 129,
      "©": 130,
      "ª": 131,
      "«": 132,
      "¬": 133,
      "®": 134,
      "¯": 135,
      "°": 136,
      "±": 137,
      "²": 138,
      "³": 139,
      "´": 140,
      "µ": 141,
      "¶": 142,
      "·": 143,
      "¸": 144,
      "¹": 145,
      "º": 146,
      "»": 147,
      "¼": 148,
      "½": 149,
      "¾": 150,
      "¿": 151,
      "À": 152,
      "Á": 153,
      "Â": 154,
      "Ã": 155,
      "Ä": 156,
      "Å": 157,
      "Æ": 158,
      "Ç": 159,
      "È": 160,
      "É": 161,
      "Ê": 162,
      "Ë": 163,
      "Ì": 164,
      "Í": 165,
      "Î": 166,
      "Ï": 167,
      "Ð": 168,
      "Ñ": 169,
      "Ò": 170,
      "Ó": 171,
      "Ô": 172,
      "Õ": 173,
      "Ö": 174,
      "×": 175,
      "Ø": 176,
      "Ù": 177,
      "Ú": 178,
      "Û": 179,
      "Ü": 180,
      "Ý": 181,
      "Þ": 182,
      "ß": 183,
      "à": 184,
      "á": 185,
      "â": 186,
      "ã": 187,
      "ä": 188,
      "å": 189,
      "æ": 190,
      "ç": 191,
      "è": 192,
      "é": 193,
      "ê": 194,
      "ë": 195,
      "ì": 196,
      "í": 197,
      "î": 198,
      "ï": 199,
      "ð": 200,
      "ñ": 201,
      "ò": 202,
      "ó": 203,
      "ô": 204,
      "õ": 205,
      "ö": 206,
      "÷": 207,
      "ø": 208,
      "ù": 209,
      "ú": 210,
      "û": 211,
      "ü": 212,
      "ý": 213,
      "þ": 214,
      "ÿ": 215,
      "Ā": 216,
      "ā": 217,
      "Ă": 218,
      "ă": 219,
      "Ą": 220,
      "ą": 221,
      "Ć": 222,
      "ć": 223,
      "Ĉ": 224,
      "ĉ": 225,
      "Ċ": 226,
      "ċ": 227,
      "Č": 228,
      "č": 229,
      "Ď": 230,
      "ď": 231,
      "Đ": 232,
      "đ": 233,
      "Ē": 234,
      "ē": 235,
      "Ĕ": 236,
      "ĕ": 237,
      "Ė": 238,
      "ė": 239,
      "Ę": 240,
      "ę": 241,
      "Ě": 242,
      "ě": 243,
      "Ĝ": 244,
      "ĝ": 245,
      "Ğ": 246,
      "ğ": 247,
      "Ġ": 248,
      "ġ": 249,
      "Ģ": 250,
      "ģ": 251,
      "Ĥ": 252,
      "ĥ": 253,
      "Ħ": 254,
      "ħ": 255,
      "Ĩ": 256,
      "ĩ": 257,
      "Ī": 258,
      "ī": 259,
      "Ĭ": 260,
      "ĭ": 261,
      "Į": 262,
      "į": 263,
      "İ": 264,
      "ı": 265,
      "Ĳ": 266,
      "ĳ": 267,
      "Ĵ": 268,
      "ĵ": 269,
      "Ķ": 270,
      "ķ": 271,
      "ĸ": 272,
      "Ĺ": 273,
      "ĺ": 274,
      "Ļ": 275,
      "ļ": 276,
      "Ľ": 277,
      "ľ": 278,
      "Ŀ": 279,
      "ŀ": 280,
      "Ł": 281,
      "ł": 282,
      "Ń": 283,
      "Ã¤": 284,
      "in": 285,
      "en": 286,
      "an": 287,
      "Ġt": 288,
      "er": 289,
      "Ġs": 290,
      "is": 291,
      "Ġo": 292,
      "ta": 293,
      "ll": 294,
      "Ġa": 295,
      "Ġm": 296,
      "Ġk": 297,
      "it": 298,
      "et": 299,
      "ar": 300,
      "Ġp": 301,
      "on": 302,
      "at": 303,
      "es": 304,
      "Ġv": 305,
      "Ã¶": 306,
      "Ġh": 307,
      "or": 308,
      "Ġf": 309,
      "Ġj": 310,
      "as": 311,
      "he": 312,
      "el": 313,
      "Ġd": 314,
      "ed": 315,
      "ti": 316,
      "al": 317,
      "Ġl": 318,
      "om": 319,
      "ut": 320,
      "Ã¥": 321,
      "us": 322,
      "Ġb": 323,
      "un": 324,
      "Ġthe": 325,
      "Ġn": 326,
      "ka": 327,
      "ing": 328,
      "Ã¤n": 329,
      "Ġr": 330,
      "tÃ¤": 331,
      "Ġin": 332,
      "ik": 333,
      "ch": 334,
      "and": 335,
      "il": 336,
      "os": 337,
      "sa": 338,
      "ur": 339,
      "Ġw": 340,
      "te": 341,
      "Ġja": 342,
      "Ġc": 343,
      "Ã¤r": 344,
      "ks": 345,
      "Ġe": 346,
      "tt": 347,
      "ill": 348,
      "Ġon": 349,
      "im": 350,
      "am": 351,
      "ĠS": 352,
      "Ġto": 353,
      "ul": 354,
      "Ã¶r": 355,
      "ol": 356,
      "Ġof": 357,
      "ig": 358,
      "id": 359,
      "iv": 360,
      "em": 361,
      "ot": 362,
      "ĠT": 363,
      "Ġand": 364,
      "Ġg": 365,
      "re": 366,
      "ent": 367,
      "ic": 368,
      "ia": 369,
      "ad": 370,
      "lla": 371,
      "Ġi": 372,
      "ro": 373,
      "ion": 374,
      "Ġoch": 375,
      "Ġen": 376,
      "ĠM": 377,
      "ist": 378,
      "pp": 379,
      "ir": 380,
      "ĠA": 381,
      "ĠĠ": 382,
      "Ġ1": 383,
      "le": 384,
      "Ġy": 385,
      "ak": 386,
      "ter": 387,
      "aa": 388,
      "um": 389,
      "Ġth": 390,
      "Ġatt": 391,
      "Ġ2": 392,
      "ec": 393,
      "ĠfÃ¶r": 394,
      "ĠP": 395,
      "ra": 396,
      "ĠK": 397,
      "ĠH": 398,
      "ys": 399,
      "Ġet": 400,
      "ell": 401,
      "yt": 402,
      "ja": 403,
      "Ã¤Ã¤": 404,
      "een": 405,
      "ko": 406,
      "ag": 407,
      "Ġ(": 408,
      "ĠI": 409,
      "ista": 410,
      "Ġse": 411,
      "âĢ": 412,
      "ud": 413,
      "all": 414,
      "st": 415,
      "ĠE": 416,
      "sÃ¤": 417,
      "ĠC": 418,
      "Ġjo": 419,
      "ver": 420,
      "to": 421,
      "Ġan": 422,
      "ĠD": 423,
      "na": 424,
      "00": 425,
      "ĠL": 426,
      "Ġsom": 427,
      "Ġas": 428,
      "iin": 429,
      "inen": 430,
      "Ġta": 431,
      "ation": 432,
      "aan": 433,
      "ĠB": 434,
      "od": 435,
      "Ġav": 436,
      "ĠpÃ¥": 437,
      "ĠJ": 438,
      "ĠÃ¤r": 439,
      "op": 440,
      "Ġis": 441,
      "Ã¤l": 442,
      "Ã¤Ã¤n": 443,
      "ĠV": 444,
      "Ġsu": 445,
      "eh": 446,
      "Ġol": 447,
      "uks": 448,
      "ĠN": 449,
      "ke": 450,
      "kin": 451,
      "Ġfor": 452,
      "Ã¤s": 453,
      "yÃ¶": 454,
      "Ġmed": 455,
      "ĠR": 456,
      "Ġdet": 457,
      "ita": 458,
      "ning": 459,
      "Ġfr": 460,
      "Ġmu": 461,
      "Ġku": 462,
      "ck": 463,
      "tu": 464,
      "ĠF": 465,
      "tion": 466,
      "Ġva": 467,
      "Ġvi": 468,
      "ans": 469,
      "Ġvar": 470,
      "ers": 471,
      "utta": 472,
      "va": 473,
      "Ã¤t": 474,
      "ĠO": 475,
      "Ġal": 476,
      "Ġtill": 477,
      "ok": 478,
      "und": 479,
      "Ġst": 480,
      "Ġka": 481,
      "ce": 482,
      "omm": 483,
      "..": 484,
      "Ġre": 485,
      "est": 486,
      "ien": 487,
      "Ġom": 488,
      "uk": 489,
      "itÃ¤": 490,
      "ow": 491,
      "itt": 492,
      "ess": 493,
      "vat": 494,
      "Ġde": 495,
      "Ġu": 496,
      "Ã¤m": 497,
      "la": 498,
      "pa": 499,
      "hd": 500,
      "Ã¥r": 501,
      "taa": 502,
      "ith": 503,
      "oit": 504,
      "Ã¥n": 505,
      "si": 506,
      "ve": 507,
      "ĠĠĠĠ": 508,
      "Ġei": 509,
      "Ġpro": 510,
      "ksi": 511,
      "Ġko": 512,
      "se": 513,
      "Ġhar": 514,
      "01": 515,
      "ĠG": 516,
      "ĠettÃ¤": 517,
      "yn": 518,
      "ki": 519,
      "Ġit": 520,
      "ort": 521,
      "Ġma": 522,
      "de": 523,
      "Ġ\"": 524,
      "lig": 525,
      "Ġwh": 526,
      "ku": 527,
      "ih": 528,
      "isen": 529,
      "Ġbe": 530,
      "ity": 531,
      "asta": 532,
      "og": 533,
      "ma": 534,
      "assa": 535,
      "ip": 536,
      "ens": 537,
      "Ġwith": 538,
      "Ġ-": 539,
      "ina": 540,
      "ly": 541,
      "ust": 542,
      "lle": 543,
      "io": 544,
      "Ġthat": 545,
      "Ġha": 546,
      "ika": 547,
      "inn": 548,
      "Ġwas": 549,
      "issa": 550,
      "Ġcon": 551,
      "Ã¤h": 552,
      "essa": 553,
      "yv": 554,
      "isi": 555,
      "ek": 556,
      "tar": 557,
      "Ġla": 558,
      "ere": 559,
      "Ġor": 560,
      "Ġsi": 561,
      "th": 562,
      "ts": 563,
      "me": 564,
      "ĠW": 565,
      "Ġkan": 566,
      "ue": 567,
      "Ġpr": 568,
      "are": 569,
      "if": 570,
      "Ġex": 571,
      "Ġkun": 572,
      "ast": 573,
      "iden": 574,
      "ty": 575,
      "Ġut": 576,
      "Ġsa": 577,
      "Ġpar": 578,
      "uo": 579,
      "ille": 580,
      "Ġar": 581,
      "istÃ¤": 582,
      "ge": 583,
      "Ġby": 584,
      "Ġvo": 585,
      "ade": 586,
      "ĠU": 587,
      "Ġus": 588,
      "Ġden": 589,
      "Ġper": 590,
      "ĠâĢ": 591,
      "Ġer": 592,
      "ies": 593,
      "jo": 594,
      "Ġpu": 595,
      "Ġsp": 596,
      "Ġhe": 597,
      "Ġinte": 598,
      "ĠThe": 599,
      "ne": 600,
      "ate": 601,
      "ala": 602,
      "Ġtar": 603,
      "esta": 604,
      "ost": 605,
      "up": 606,
      "Ġjag": 607,
      "Ġmen": 608,
      "Ġel": 609,
      "han": 610,
      "Ġsam": 611,
      "isk": 612,
      "Ġtr": 613,
      "der": 614,
      "ĠkÃ¤": 615,
      "Ġne": 616,
      "Ġmin": 617,
      "Ġval": 618,
      "Ġle": 619,
      "llÃ¤": 620,
      "man": 621,
      "ap": 622,
      "kaan": 623,
      "oll": 624,
      "Ġ3": 625,
      "Ġole": 626,
      "oc": 627,
      "illa": 628,
      "Ġ19": 629,
      "tal": 630,
      "qu": 631,
      "usta": 632,
      "oin": 633,
      "kÃ¤": 634,
      "ga": 635,
      "Ġ201": 636,
      "Ġett": 637,
      "ou": 638,
      "ine": 639,
      "ym": 640,
      "sk": 641,
      "Ġare": 642,
      "tr": 643,
      "ĠIn": 644,
      "unn": 645,
      "ee": 646,
      "ff": 647,
      "ĠsÃ¥": 648,
      "vel": 649,
      "bl": 650,
      "Ã¶n": 651,
      "esti": 652,
      "Ġman": 653,
      "iss": 654,
      "uom": 655,
      "ber": 656,
      "per": 657,
      "isu": 658,
      "tÃ¤Ã¤": 659,
      "ant": 660,
      "ac": 661,
      "ht": 662,
      "Ġte": 663,
      "ĠmyÃ¶": 664,
      "Ġdu": 665,
      "ike": 666,
      "Ġbl": 667,
      "het": 668,
      "ller": 669,
      "taan": 670,
      "Ġat": 671,
      "Ġtul": 672,
      "yd": 673,
      "av": 674,
      "iel": 675,
      "ĠnÃ¤": 676,
      "omp": 677,
      "ande": 678,
      "Ġti": 679,
      "our": 680,
      "ua": 681,
      "Ġoli": 682,
      "ĠpÃ¤Ã¤": 683,
      "Ġsk": 684,
      "ite": 685,
      "for": 686,
      "ov": 687,
      "erk": 688,
      "att": 689,
      "tÃ¤v": 690,
      "Ġvu": 691,
      "uc": 692,
      "Ġch": 693,
      "ian": 694,
      "uv": 695,
      "Ġall": 696,
      "Ġfrom": 697,
      "jan": 698,
      "Ġtu": 699,
      "Ġhel": 700,
      "Ġpa": 701,
      "--": 702,
      "jen": 703,
      "Ġres": 704,
      "oa": 705,
      "ie": 706,
      "ger": 707,
      "ann": 708,
      "hte": 709,
      "asti": 710,
      "fÃ¶r": 711,
      "ossa": 712,
      "Ġkomm": 713,
      "Ġme": 714,
      "Ġmutta": 715,
      "Ã¥g": 716,
      "da": 717,
      "Ġsen": 718,
      "illÃ¤": 719,
      "Ġhyv": 720,
      "Ġniin": 721,
      "fter": 722,
      "oh": 723,
      "ats": 724,
      "Ġupp": 725,
      "Ġtai": 726,
      "ial": 727,
      "Ġes": 728,
      "iset": 729,
      "ds": 730,
      "gr": 731,
      "ide": 732,
      "ass": 733,
      "ĠmyÃ¶s": 734,
      "min": 735,
      "Ġpal": 736,
      "li": 737,
      "ĠÃ¶": 738,
      "ven": 739,
      "ella": 740,
      "yy": 741,
      "Ġli": 742,
      "čĊ": 743,
      "pr": 744,
      "hm": 745,
      "osta": 746,
      ").": 747,
      "ĠY": 748,
      "ame": 749,
      "etta": 750,
      "sta": 751,
      "Ã¤tt": 752,
      "iten": 753,
      "van": 754,
      "ikka": 755,
      "uksen": 756,
      "lo": 757,
      "Ġovat": 758,
      "Ġ4": 759,
      "uta": 760,
      "out": 761,
      "Ġund": 762,
      "ure": 763,
      "var": 764,
      "ten": 765,
      "'s": 766,
      "ilm": 767,
      "Ġkuin": 768,
      "ated": 769,
      "Ġker": 770,
      "Ġac": 771,
      "ore": 772,
      "Ġ5": 773,
      "gen": 774,
      "Ã¤k": 775,
      "Ġtoim": 776,
      "esk": 777,
      "ich": 778,
      "ive": 779,
      "ĠtÃ¤": 780,
      "ern": 781,
      "ble": 782,
      "enn": 783,
      "Ġsh": 784,
      "iksi": 785,
      "ark": 786,
      "Ġun": 787,
      "Ġed": 788,
      "ĠhÃ¤n": 789,
      "mat": 790,
      "tÃ¤m": 791,
      "tiin": 792,
      "ĠvÃ¤l": 793,
      "Ġska": 794,
      "ug": 795,
      "ime": 796,
      "ana": 797,
      "oul": 798,
      "Ġra": 799,
      "ps": 800,
      "isesti": 801,
      "ear": 802,
      "ss": 803,
      "essÃ¤": 804,
      "ect": 805,
      "...": 806,
      "ett": 807,
      "Ġgr": 808,
      "era": 809,
      "ri": 810,
      "Ġkaik": 811,
      "ha": 812,
      "isÃ¤": 813,
      "issÃ¤": 814,
      "pl": 815,
      "ents": 816,
      "Ã¡": 817,
      "yr": 818,
      "ĠĠĠĠĠĠĠĠ": 819,
      "Ã¤iv": 820,
      "Ġsig": 821,
      "one": 822,
      "ay": 823,
      "Ġthis": 824,
      "ĠtyÃ¶": 825,
      "ord": 826,
      "Ġjoka": 827,
      "ild": 828,
      "ous": 829,
      "Ġsin": 830,
      "Ġkans": 831,
      "Ġnot": 832,
      "ĠAn": 833,
      "Ġsta": 834,
      "ard": 835,
      "ĠEn": 836,
      "tem": 837,
      "Ġim": 838,
      "ev": 839,
      "ets": 840,
      "ĠTh": 841,
      "jÃ¤": 842,
      "Ġeller": 843,
      "Ġunder": 844,
      "Ġmat": 845,
      "ivat": 846,
      "ellÃ¤": 847,
      "Ġteh": 848,
      "ĠâĢĵ": 849,
      "ĠfrÃ¥n": 850,
      "rit": 851,
      "Ã¤nn": 852,
      "Ġlu": 853,
      "bb": 854,
      "Ġpo": 855,
      "otta": 856,
      "tic": 857,
      "Ġpl": 858,
      "Ġad": 859,
      "els": 860,
      "ÃĦ": 861,
      "val": 862,
      "gg": 863,
      "Ġcan": 864,
      "yck": 865,
      "amp": 866,
      "ise": 867,
      "art": 868,
      "isia": 869,
      "ick": 870,
      "âĢĿ": 871,
      "The": 872,
      "ong": 873,
      "her": 874,
      "uden": 875,
      "ihin": 876,
      "iÃ¤": 877,
      "Ġ200": 878,
      "Ġwere": 879,
      "Ġvoi": 880,
      "ott": 881,
      "itta": 882,
      "so": 883,
      "isten": 884,
      "oun": 885,
      "tor": 886,
      "elle": 887,
      "Ġni": 888,
      "Ġcomp": 889,
      "Ġkon": 890,
      "ran": 891,
      "Ġwe": 892,
      "yl": 893,
      "âĢĵ": 894,
      "emp": 895,
      "ikÃ¤": 896,
      "Ġhu": 897,
      "ition": 898,
      "kk": 899,
      "kaa": 900,
      "Ġgen": 901,
      "mer": 902,
      "ila": 903,
      "Ġhave": 904,
      "ytt": 905,
      "ara": 906,
      "Ġpit": 907,
      "Ġkir": 908,
      "den": 909,
      "ull": 910,
      "Ã¤Ã¤r": 911,
      "Ġits": 912,
      "kl": 913,
      "Ġjos": 914,
      "Ġop": 915,
      "ire": 916,
      "elm": 917,
      "Ġwhich": 918,
      "Ġ20": 919,
      "ould": 920,
      "ry": 921,
      "estÃ¤": 922,
      "Ġhal": 923,
      "Ġfl": 924,
      "Ã¶k": 925,
      "fer": 926,
      "itten": 927,
      "Ġyou": 928,
      "oja": 929,
      "ings": 930,
      "uu": 931,
      "ical": 932,
      "ase": 933,
      "hta": 934,
      "ment": 935,
      "Ġ6": 936,
      "ĠkÃ¤yt": 937,
      "201": 938,
      "isin": 939,
      "cl": 940,
      "Ã¤mÃ¤": 941,
      "ĠDet": 942,
      "Ġmer": 943,
      "Ġpel": 944,
      "ish": 945,
      "ĠnÃ¤r": 946,
      "ep": 947,
      "Ġso": 948,
      "ally": 949,
      "Ġab": 950,
      "Ã¶s": 951,
      "Ġmon": 952,
      "Ġlo": 953,
      "iz": 954,
      "ely": 955,
      "jat": 956,
      "),": 957,
      "ier": 958,
      "imm": 959,
      "Ġser": 960,
      "Ġolla": 961,
      "ettu": 962,
      "Ã¤ssÃ¤": 963,
      "ligt": 964,
      "Ã¤nd": 965,
      "Ġwor": 966,
      "ĠnÃ¥g": 967,
      "Ġjot": 968,
      "ang": 969,
      "enk": 970,
      "olog": 971,
      "tain": 972,
      "Ġstr": 973,
      "Ġtiet": 974,
      "Ġnu": 975,
      "ind": 976,
      "Ġsan": 977,
      "20": 978,
      "men": 979,
      "tern": 980,
      "ulla": 981,
      "ĠÃ¤": 982,
      "Ġver": 983,
      "ĠlÃ¤h": 984,
      "âĢĻ": 985,
      "Ġny": 986,
      "elÃ¤": 987,
      "Ġhis": 988,
      "iko": 989,
      "Ġkos": 990,
      "ĠlÃ¤": 991,
      "ikk": 992,
      "Ġju": 993,
      "iseen": 994,
      "ations": 995,
      "ater": 996,
      "Ġkor": 997,
      "Ġuse": 998,
      "llut": 999,
      "Ġ0": 1000,
      "ink": 1001,
      "br": 1002,
      "Ġmiel": 1003,
      "ile": 1004,
      "joit": 1005,
      "Ġsel": 1006,
      "mp": 1007,
      "Ġhan": 1008,
      "Ġsaa": 1009,
      "Ġpol": 1010,
      "je": 1011,
      "Ġaika": 1012,
      "ksen": 1013,
      "form": 1014,
      "Ġyhte": 1015,
      "ight": 1016,
      "ary": 1017,
      "mm": 1018,
      "Ġbr": 1019,
      "Ġrec": 1020,
      "ele": 1021,
      "ĠCh": 1022,
      "tia": 1023,
      "Ġna": 1024,
      "Ġos": 1025,
      "jÃ¤l": 1026,
      "ft": 1027,
      "Ġkr": 1028,
      "Ġosa": 1029,
      "Ġihm": 1030,
      "Ġkl": 1031,
      "tions": 1032,
      "Ġapp": 1033,
      "ĠÃ¥r": 1034,
      "Ġkul": 1035,
      "In": 1036,
      "Ġty": 1037,
      "teen": 1038,
      "tiv": 1039,
      "ussa": 1040,
      "str": 1041,
      "ins": 1042,
      "ata": 1043,
      "Ġno": 1044,
      "ons": 1045,
      "Ġ:": 1046,
      "end": 1047,
      "ĠÃ¶ver": 1048,
      "Ġhas": 1049,
      "Ġ7": 1050,
      "iet": 1051,
      "alla": 1052,
      "atta": 1053,
      "sl": 1054,
      "ĠdÃ¤r": 1055,
      "alta": 1056,
      "jon": 1057,
      "Ġtheir": 1058,
      "Ã¥ng": 1059,
      "ĠSe": 1060,
      "iska": 1061,
      "age": 1062,
      "Ġvain": 1063,
      "Ġoc": 1064,
      "ome": 1065,
      "000": 1066,
      "maan": 1067,
      "Ġkanssa": 1068,
      "ĠvÃ¤": 1069,
      "til": 1070,
      "pe": 1071,
      "emm": 1072,
      "ĠÃ¥": 1073,
      "Ġ18": 1074,
      "issue": 1075,
      "Ġoike": 1076,
      "eli": 1077,
      "Ġdo": 1078,
      "oim": 1079,
      "ĠsitÃ¤": 1080,
      "ĠHe": 1081,
      "Ġnyt": 1082,
      "Ġil": 1083,
      "ice": 1084,
      "Ġ10": 1085,
      "Ġmuut": 1086,
      "Ġsl": 1087,
      "arn": 1088,
      "ther": 1089,
      "ĠpÃ¤iv": 1090,
      "ĠhÃ¤r": 1091,
      "igt": 1092,
      "arna": 1093,
      "Ġqu": 1094,
      "ĠlÃ¶": 1095,
      "fr": 1096,
      "Ġstud": 1097,
      "Ġalso": 1098,
      "itet": 1099,
      "ub": 1100,
      "Ġsitten": 1101,
      "Ġ8": 1102,
      "Ġbut": 1103,
      "ĠsekÃ¤": 1104,
      "Ġbet": 1105,
      "port": 1106,
      "int": 1107,
      "ew": 1108,
      "ct": 1109,
      "Ġann": 1110,
      "ĠgÃ¶r": 1111,
      "Ġbeh": 1112,
      "its": 1113,
      "ĠSuom": 1114,
      "ese": 1115,
      "duc": 1116,
      "ken": 1117,
      "Ġefter": 1118,
      "ĠUn": 1119,
      "Ġter": 1120,
      "ult": 1121,
      "erna": 1122,
      "Ġdel": 1123,
      "Ġcl": 1124,
      "Ġpuol": 1125,
      "Ġmak": 1126,
      "erson": 1127,
      "Ġvara": 1128,
      "Ã¤rj": 1129,
      "org": 1130,
      "ach": 1131,
      "iit": 1132,
      "uh": 1133,
      "Ġaut": 1134,
      "ivÃ¤t": 1135,
      "Ã¶m": 1136,
      "ose": 1137,
      "ii": 1138,
      "eta": 1139,
      "Ġvan": 1140,
      "ood": 1141,
      "Ġtun": 1142,
      "Ġkommer": 1143,
      "Ã¤ll": 1144,
      "----": 1145,
      "gl": 1146,
      "anta": 1147,
      "Ġkesk": 1148,
      "Ġalla": 1149,
      "Ġ9": 1150,
      "inta": 1151,
      "Ġfinn": 1152,
      "Ġtur": 1153,
      "Ġsm": 1154,
      "ĠjÃ¤l": 1155,
      "upp": 1156,
      "tig": 1157,
      "ername": 1158,
      "Ġsc": 1159,
      "uksia": 1160,
      "ph": 1161,
      "Ġollut": 1162,
      "riv": 1163,
      "ah": 1164,
      "username": 1165,
      "Ġvasta": 1166,
      "kÃ¶": 1167,
      "Ã¤ng": 1168,
      "eet": 1169,
      "uol": 1170,
      "Ġmukaan": 1171,
      "ob": 1172,
      "dag": 1173,
      "igh": 1174,
      "Ġihan": 1175,
      "kt": 1176,
      "ib": 1177,
      "kon": 1178,
      "Ġher": 1179,
      "pro": 1180,
      "ld": 1181,
      "ningen": 1182,
      "Ġ[": 1183,
      "10": 1184,
      "Ãĸ": 1185,
      "uun": 1186,
      "ors": 1187,
      "ĠvielÃ¤": 1188,
      "ĠĠĠ": 1189,
      "Ġdig": 1190,
      "aus": 1191,
      "oks": 1192,
      "Ġtak": 1193,
      "oma": 1194,
      "yllÃ¤": 1195,
      "kan": 1196,
      "Ġtal": 1197,
      "Ġpla": 1198,
      "Ġone": 1199,
      "own": 1200,
      "ond": 1201,
      "Ġseur": 1202,
      "cess": 1203,
      "ope": 1204,
      "keen": 1205,
      "com": 1206,
      "Ġtil": 1207,
      "ket": 1208,
      "19": 1209,
      "Ġout": 1210,
      "Ġcomm": 1211,
      "ĠsÃ¤": 1212,
      "Ġfir": 1213,
      "ab": 1214,
      "Ġkas": 1215,
      "Ġvill": 1216,
      "ory": 1217,
      "ĠAr": 1218,
      "nen": 1219,
      "Ġtapa": 1220,
      "Ġmore": 1221,
      "liga": 1222,
      "ĠIt": 1223,
      "Ġkys": 1224,
      "asi": 1225,
      "Ġfinns": 1226,
      "čĊč": 1227,
      "Ġkoko": 1228,
      "over": 1229,
      "Ġverk": 1230,
      "ĠvÃ¤h": 1231,
      "ign": 1232,
      "vaa": 1233,
      "ser": 1234,
      "sam": 1235,
      "ari": 1236,
      "Ġho": 1237,
      "alle": 1238,
      "ree": 1239,
      "hdoll": 1240,
      "ĠfÃ¥": 1241,
      "Ġmil": 1242,
      "Ã¤stÃ¤": 1243,
      "Ġrak": 1244,
      "ino": 1245,
      "Ġthey": 1246,
      "Ġasia": 1247,
      "edan": 1248,
      "ound": 1249,
      "Ġhad": 1250,
      "Ġolisi": 1251,
      "comm": 1252,
      "ingen": 1253,
      "isti": 1254,
      "vi": 1255,
      "ĠvÃ¤r": 1256,
      "Ġam": 1257,
      "Ġreg": 1258,
      "Ġkeh": 1259,
      "Ġpre": 1260,
      "Ġmod": 1261,
      "reat": 1262,
      "pÃ¤": 1263,
      "eng": 1264,
      "Ġtuo": 1265,
      "Ġpos": 1266,
      "ars": 1267,
      "//": 1268,
      "Ġdag": 1269,
      "ces": 1270,
      "vis": 1271,
      "uri": 1272,
      "Ġvid": 1273,
      "isiin": 1274,
      "ati": 1275,
      "Ġdis": 1276,
      "ĠVi": 1277,
      "ĠAl": 1278,
      "uut": 1279,
      "Ġmot": 1280,
      "jÃ¤n": 1281,
      "Ġkes": 1282,
      "uttaa": 1283,
      "Ã¤mÃ¤n": 1284,
      "Ġwill": 1285,
      "sp": 1286,
      "ky": 1287,
      "Ġtut": 1288,
      "ksÃ¥": 1289,
      "ona": 1290,
      "Ġens": 1291,
      "ement": 1292,
      "atur": 1293,
      "ycket": 1294,
      "tuu": 1295,
      "land": 1296,
      "nad": 1297,
      "itu": 1298,
      "Ġinto": 1299,
      "lÃ¤": 1300,
      "Ġkuiten": 1301,
      "Ġmaa": 1302,
      "ola": 1303,
      "Ġup": 1304,
      "Ġvaan": 1305,
      "Ġoh": 1306,
      "Ġdes": 1307,
      "ihe": 1308,
      "Ġbra": 1309,
      "ĠsiitÃ¤": 1310,
      "ystem": 1311,
      "ningar": 1312,
      "ister": 1313,
      "ĠocksÃ¥": 1314,
      "ĠmitÃ¤": 1315,
      "ĠhÃ¶": 1316,
      "get": 1317,
      "ack": 1318,
      "Ġmit": 1319,
      "Ġrel": 1320,
      "onn": 1321,
      "tÃ¶": 1322,
      "Ġsyn": 1323,
      "yks": 1324,
      "amm": 1325,
      "ho": 1326,
      "\",": 1327,
      "Ġspec": 1328,
      "Ġmet": 1329,
      "ence": 1330,
      "Ġsv": 1331,
      "clud": 1332,
      "Ġhyvin": 1333,
      "Ġyour": 1334,
      "Ġfram": 1335,
      "vo": 1336,
      "orn": 1337,
      "ker": 1338,
      "Ġtw": 1339,
      "Ġitse": 1340,
      "Ġvil": 1341,
      "Ġarb": 1342,
      "ani": 1343,
      "ĠfÃ¥r": 1344,
      "Ġkn": 1345,
      "Ġ15": 1346,
      "edot": 1347,
      "Ġhur": 1348,
      "unut": 1349,
      "ung": 1350,
      "red": 1351,
      "Ġmahdoll": 1352,
      "Ġmig": 1353,
      "ĠOn": 1354,
      "Ġother": 1355,
      "tat": 1356,
      "hed": 1357,
      "ĠmÃ¥n": 1358,
      "Ġpe": 1359,
      "Ġul": 1360,
      "ittel": 1361,
      "nings": 1362,
      "Ġyhd": 1363,
      "Ġstor": 1364,
      "ukset": 1365,
      "Ġperson": 1366,
      "ool": 1367,
      "Ġtid": 1368,
      "usi": 1369,
      "ĠhyvÃ¤": 1370,
      "ance": 1371,
      "comment": 1372,
      "Ġvir": 1373,
      "uot": 1374,
      "Ġbeen": 1375,
      "una": 1376,
      "vÃ¤n": 1377,
      "ĠjÃ¤lkeen": 1378,
      "Ġinter": 1379,
      "Ġpaljon": 1380,
      "://": 1381,
      "ism": 1382,
      "gan": 1383,
      "Ġinn": 1384,
      "ĠdÃ¥": 1385,
      "Ġtulee": 1386,
      "Ġaina": 1387,
      "IN": 1388,
      "ĠKa": 1389,
      "EN": 1390,
      "unta": 1391,
      "Ġgro": 1392,
      "ida": 1393,
      "ikko": 1394,
      "Ġ=": 1395,
      "oo": 1396,
      "Ġhand": 1397,
      "Ġtek": 1398,
      "ĠmÃ¥": 1399,
      "Ġjon": 1400,
      "uss": 1401,
      "Ġot": 1402,
      "hti": 1403,
      "olm": 1404,
      "aste": 1405,
      "isa": 1406,
      "erg": 1407,
      "itse": 1408,
      "ili": 1409,
      "ank": 1410,
      "par": 1411,
      "Ġpres": 1412,
      "Ġfirst": 1413,
      "Ġmycket": 1414,
      "11": 1415,
      "tive": 1416,
      "ont": 1417,
      "Ġind": 1418,
      "uka": 1419,
      "Ġdem": 1420,
      "Ġvaikka": 1421,
      "ale": 1422,
      "stÃ¤": 1423,
      "Ġkuul": 1424,
      "tid": 1425,
      "Ġeff": 1426,
      "Ã¶l": 1427,
      "bj": 1428,
      "Ġaik": 1429,
      "Ã¶j": 1430,
      "Ġtv": 1431,
      "ain": 1432,
      "xt": 1433,
      "oon": 1434,
      "Ġvuod": 1435,
      "Ġbec": 1436,
      "Ġjotka": 1437,
      "yys": 1438,
      "\".": 1439,
      "ren": 1440,
      "ied": 1441,
      "anut": 1442,
      "Ġhet": 1443,
      "ste": 1444,
      "ska": 1445,
      "vÃ¤": 1446,
      "iva": 1447,
      "Ġwho": 1448,
      "nÃ¤": 1449,
      "ational": 1450,
      "12": 1451,
      "Ġyear": 1452,
      "Ġyks": 1453,
      "Ġstar": 1454,
      "Ġsuur": 1455,
      "Ġkok": 1456,
      "tim": 1457,
      "Ġover": 1458,
      "enkil": 1459,
      "ved": 1460,
      "itys": 1461,
      "ros": 1462,
      "Ġ12": 1463,
      "Ġtarv": 1464,
      "yttÃ¶": 1465,
      "ĠJag": 1466,
      "ĠtÃ¤n": 1467,
      "Ã¤rjest": 1468,
      "ĠMar": 1469,
      "Ġkaikki": 1470,
      "Ġilm": 1471,
      "enter": 1472,
      "iga": 1473,
      "ted": 1474,
      "Ġtra": 1475,
      "isuus": 1476,
      "fl": 1477,
      "ased": 1478,
      "En": 1479,
      "dr": 1480,
      "med": 1481,
      "Ġwork": 1482,
      "pos": 1483,
      "Ġ|": 1484,
      "Ġpien": 1485,
      "Ġkiin": 1486,
      "Ġjul": 1487,
      "Ã©": 1488,
      "oth": 1489,
      "uus": 1490,
      "orr": 1491,
      "Ã¶d": 1492,
      "uring": 1493,
      "orm": 1494,
      "Ġtime": 1495,
      "Ġpys": 1496,
      "Ġhuom": 1497,
      "aren": 1498,
      "Ġinclud": 1499,
      "Ġandra": 1500,
      "ww": 1501,
      "Ġhon": 1502,
      "ĠDe": 1503,
      "jaa": 1504,
      "oista": 1505,
      "ath": 1506,
      "bo": 1507,
      "Ġinv": 1508,
      "Ġdif": 1509,
      "Ġwhen": 1510,
      "enta": 1511,
      "Ġjat": 1512,
      "Ġesim": 1513,
      "ĠÃ¤ven": 1514,
      "oug": 1515,
      "ST": 1516,
      "Ġco": 1517,
      "Ġtwo": 1518,
      "ions": 1519,
      "Ġfun": 1520,
      "ivers": 1521,
      "Ġke": 1522,
      "uten": 1523,
      "ĠvÃ¥r": 1524,
      "ĠbÃ¶r": 1525,
      "wn": 1526,
      "Ġnum": 1527,
      "isesta": 1528,
      "ail": 1529,
      "esi": 1530,
      "ĠkÃ¤s": 1531,
      "ĠJa": 1532,
      "iseksi": 1533,
      "immÃ¤": 1534,
      "inÃ¤": 1535,
      "Ġnew": 1536,
      "Ġlis": 1537,
      "Ġfin": 1538,
      "ĠÃ¤n": 1539,
      "ting": 1540,
      "ligen": 1541,
      "Ġmark": 1542,
      "Ġbo": 1543,
      "Ġass": 1544,
      "ĠRe": 1545,
      "Ġbara": 1546,
      "ĠThis": 1547,
      "ugh": 1548,
      "ular": 1549,
      "Ġvet": 1550,
      "ating": 1551,
      "Ġthere": 1552,
      "sÃ¤tt": 1553,
      "iste": 1554,
      "Ġcons": 1555,
      "ĠFÃ¶r": 1556,
      "Ġvalm": 1557,
      "ĠmÃ¤Ã¤r": 1558,
      "Ġkunn": 1559,
      "Ġkuitenkin": 1560,
      "ete": 1561,
      "Ġmy": 1562,
      "Ġthan": 1563,
      "ific": 1564,
      "vin": 1565,
      "Ġabout": 1566,
      "Ġdec": 1567,
      "kel": 1568,
      "tÃ¤Ã¤n": 1569,
      "Ġhi": 1570,
      "Ġtehd": 1571,
      "Ġlite": 1572,
      "Ġolen": 1573,
      "ĠJos": 1574,
      "Ġsur": 1575,
      "Ġmain": 1576,
      "Ġinc": 1577,
      "Ġur": 1578,
      "Ġtas": 1579,
      "lin": 1580,
      "isiÃ¤": 1581,
      "Ġ&": 1582,
      "Ġ.": 1583,
      "Ġ'": 1584,
      "ĠkyllÃ¤": 1585,
      "ling": 1586,
      "Ġhem": 1587,
      "Ġmi": 1588,
      "Ġform": 1589,
      "tur": 1590,
      "Ġrun": 1591,
      "ĠeivÃ¤t": 1592,
      "Ġliv": 1593,
      "Ġsku": 1594,
      "ember": 1595,
      "Ġsol": 1596,
      "Ġarv": 1597,
      "Ġjossa": 1598,
      "ilta": 1599,
      "vasti": 1600,
      "sin": 1601,
      "ĠmitÃ¤Ã¤n": 1602,
      "tÃ¤vÃ¤": 1603,
      "Ġdr": 1604,
      "fic": 1605,
      "ojen": 1606,
      "Ġev": 1607,
      "Ġbes": 1608,
      "Ġgenom": 1609,
      "arb": 1610,
      "21": 1611,
      "Ġbu": 1612,
      "ittÃ¤": 1613,
      "Ġmuuta": 1614,
      "Ġtunn": 1615,
      "itus": 1616,
      "Ã¥ll": 1617,
      "als": 1618,
      "Ġph": 1619,
      "Ġkaup": 1620,
      "ĠâĢĿ": 1621,
      "Ġviime": 1622,
      "Ġvoit": 1623,
      "ĠPr": 1624,
      "Ã¶t": 1625,
      "akin": 1626,
      "elu": 1627,
      "Ġmus": 1628,
      "Ġvad": 1629,
      "Ġtied": 1630,
      "ction": 1631,
      "emme": 1632,
      "ĠSt": 1633,
      "Ġ16": 1634,
      "Ġ17": 1635,
      "Ġ/": 1636,
      "Ġak": 1637,
      "30": 1638,
      "isÃ¤ti": 1639,
      "kar": 1640,
      "Ġtrans": 1641,
      "Ġspel": 1642,
      "Ġmay": 1643,
      "etÃ¤Ã¤n": 1644,
      "ever": 1645,
      "Ġperus": 1646,
      "osi": 1647,
      "ious": 1648,
      "formation": 1649,
      "ced": 1650,
      "Ġvaik": 1651,
      "del": 1652,
      "Ġwould": 1653,
      "Ġsome": 1654,
      "ĠLa": 1655,
      "Ġsec": 1656,
      "ula": 1657,
      "kka": 1658,
      "Ġ199": 1659,
      "Ġkoul": 1660,
      "ĠÂ": 1661,
      "imme": 1662,
      "minen": 1663,
      "olla": 1664,
      "Ġafter": 1665,
      "Ġliik": 1666,
      "ui": 1667,
      "yh": 1668,
      "Ġutan": 1669,
      "Ġfe": 1670,
      "Ã¤llÃ¤": 1671,
      "entr": 1672,
      "Ġvas": 1673,
      "ily": 1674,
      "yttÃ¤": 1675,
      "Ġif": 1676,
      "istor": 1677,
      "Ġkoska": 1678,
      "onna": 1679,
      "ĠĠĠĠĠĠĠĠĠĠĠĠĠĠĠĠ": 1680,
      "ote": 1681,
      "kr": 1682,
      "idÃ¤n": 1683,
      "Ġkann": 1684,
      "via": 1685,
      "AN": 1686,
      "kea": 1687,
      "ĠPro": 1688,
      "Ġblir": 1689,
      "ni": 1690,
      "led": 1691,
      "ering": 1692,
      "ettiin": 1693,
      "emaan": 1694,
      "Ġthem": 1695,
      "rÃ¥": 1696,
      "Ġrik": 1697,
      "jÃ¶": 1698,
      "kim": 1699,
      "kÃ¤Ã¤n": 1700,
      "ĠeikÃ¤": 1701,
      "ĠsillÃ¤": 1702,
      "Ġhall": 1703,
      "hem": 1704,
      "Ġyle": 1705,
      "Ġsis": 1706,
      "Ġused": 1707,
      "emmin": 1708,
      "ulle": 1709,
      "Ġhade": 1710,
      "ween": 1711,
      "Ã¤rke": 1712,
      "Ġskulle": 1713,
      "ĠLe": 1714,
      "Ġkerto": 1715,
      "iti": 1716,
      "ĠMen": 1717,
      "jer": 1718,
      "Ġtre": 1719,
      "Ġvis": 1720,
      "Ġnim": 1721,
      "Ġopp": 1722,
      "50": 1723,
      "Ġid": 1724,
      "oi": 1725,
      "vall": 1726,
      "une": 1727,
      "Ġyl": 1728,
      "rat": 1729,
      "Ġdin": 1730,
      "Ġrem": 1731,
      "ada": 1732,
      "Ġ11": 1733,
      "Ġâ": 1734,
      "ĠOl": 1735,
      "Ġ14": 1736,
      "urn": 1737,
      "enska": 1738,
      "Ġonly": 1739,
      "ER": 1740,
      "Ġlaps": 1741,
      "ĠpitÃ¤Ã¤": 1742,
      "kee": 1743,
      "Ġluk": 1744,
      "ited": 1745,
      "Ġ,": 1746,
      "Ġsop": 1747,
      "ĠEur": 1748,
      "ities": 1749,
      "Ġsex": 1750,
      "ĠTo": 1751,
      "tua": 1752,
      "velop": 1753,
      "Ġeur": 1754,
      "Ġred": 1755,
      "ĠsjÃ¤l": 1756,
      "Ġhelp": 1757,
      "fi": 1758,
      "tin": 1759,
      "An": 1760,
      "by": 1761,
      "ynyt": 1762,
      "cy": 1763,
      "ĠlÃ¤m": 1764,
      "pal": 1765,
      "Ġdiffer": 1766,
      "mme": 1767,
      "urs": 1768,
      "elta": 1769,
      "verig": 1770,
      "ex": 1771,
      "ork": 1772,
      "ĠâĢľ": 1773,
      "ensÃ¤": 1774,
      "Ġbetween": 1775,
      "gram": 1776,
      "Ġdire": 1777,
      "Ġennen": 1778,
      "Ġmost": 1779,
      "Ġthese": 1780,
      "Ã¤ni": 1781,
      "LisÃ¤ti": 1782,
      "Ġjoten": 1783,
      "iskt": 1784,
      "son": 1785,
      "erade": 1786,
      "Ã¤nyt": 1787,
      "Ġhenkil": 1788,
      "``": 1789,
      "Ġyli": 1790,
      "kas": 1791,
      "Ġkol": 1792,
      "Ġpak": 1793,
      "Ġsystem": 1794,
      "uksessa": 1795,
      "Ġjust": 1796,
      "Ġsuch": 1797,
      "rough": 1798,
      "Ġbarn": 1799,
      "umm": 1800,
      "tra": 1801,
      "Ġresp": 1802,
      "Ġtarko": 1803,
      "be": 1804,
      "pt": 1805,
      "ĠBr": 1806,
      "**": 1807,
      "....": 1808,
      "blem": 1809,
      "ower": 1810,
      "kor": 1811,
      "isÃ¤ksi": 1812,
      "Ġoss": 1813,
      "pi": 1814,
      "vu": 1815,
      "Ġyh": 1816,
      "Ġmiten": 1817,
      "Ġber": 1818,
      "omen": 1819,
      "Ġfac": 1820,
      "ollow": 1821,
      "etty": 1822,
      "Ġsiis": 1823,
      "Ġrat": 1824,
      "Ġsign": 1825,
      "ster": 1826,
      "ĠJo": 1827,
      "ĠtÃ¤mÃ¤": 1828,
      "ĠTr": 1829,
      "Ġsupp": 1830,
      "ton": 1831,
      "Ġ30": 1832,
      "asto": 1833,
      "Ġ13": 1834,
      "ĠmÃ¥nga": 1835,
      "ĠlÃ¶yt": 1836,
      "Ġproduc": 1837,
      "utus": 1838,
      "Ġend": 1839,
      "bil": 1840,
      "ough": 1841,
      "tro": 1842,
      "ople": 1843,
      "ĠAs": 1844,
      ".\"": 1845,
      "Ġkats": 1846,
      "ivan": 1847,
      "Ġdetta": 1848,
      "hel": 1849,
      "htt": 1850,
      "blic": 1851,
      "Ġled": 1852,
      "Ġfam": 1853,
      "Ġsuor": 1854,
      "som": 1855,
      "Ġpalvel": 1856,
      "iinÃ¤": 1857,
      "ihen": 1858,
      "ĠWh": 1859,
      "Ġplan": 1860,
      "Det": 1861,
      "till": 1862,
      "Ġsaat": 1863,
      "istaa": 1864,
      "ected": 1865,
      "hon": 1866,
      "ori": 1867,
      "Ġaj": 1868,
      "200": 1869,
      "teet": 1870,
      "enti": 1871,
      "ĠkÃ¶": 1872,
      "Ġ:)": 1873,
      "Ġvuoden": 1874,
      "Ġsub": 1875,
      "Ã¤nÃ¤": 1876,
      "LisÃ¤tiedot": 1877,
      "ene": 1878,
      "ira": 1879,
      "Ãħ": 1880,
      "Ġtuot": 1881,
      "jÃ¤r": 1882,
      "Ġyrit": 1883,
      "vet": 1884,
      "Ġki": 1885,
      "Ġ+": 1886,
      "Ã¤sta": 1887,
      "ital": 1888,
      "ĠgÃ¶ra": 1889,
      "dition": 1890,
      "eras": 1891,
      "lar": 1892,
      "ession": 1893,
      "Ġkil": 1894,
      "Ġlas": 1895,
      "Ġhigh": 1896,
      "Ġdata": 1897,
      "Ġtarjo": 1898,
      "heter": 1899,
      "Ġhow": 1900,
      "Ġain": 1901,
      "ĠSa": 1902,
      "ock": 1903,
      "ĠDen": 1904,
      "Ġolika": 1905,
      "ection": 1906,
      "Ġwhere": 1907,
      "ause": 1908,
      "tigt": 1909,
      "ace": 1910,
      "Ġob": 1911,
      "Ġmerk": 1912,
      "15": 1913,
      "ĠTa": 1914,
      "Ġgo": 1915,
      "Ġasi": 1916,
      "osia": 1917,
      "jor": 1918,
      "Ġgener": 1919,
      "Ġloc": 1920,
      "ode": 1921,
      "ali": 1922,
      "Ġprov": 1923,
      "22": 1924,
      "old": 1925,
      "ior": 1926,
      "18": 1927,
      "uja": 1928,
      "puol": 1929,
      "Th": 1930,
      "Ġdef": 1931,
      "ikki": 1932,
      "ansa": 1933,
      "Ġacc": 1934,
      "ole": 1935,
      "SA": 1936,
      "ute": 1937,
      "alm": 1938,
      "Ġvaih": 1939,
      "ĠMa": 1940,
      "Ġeli": 1941,
      "Ġland": 1942,
      "Ã¤v": 1943,
      "Ġret": 1944,
      "ric": 1945,
      "emmÃ¤n": 1946,
      "||": 1947,
      "Ġpart": 1948,
      "lev": 1949,
      "fore": 1950,
      "ĠnÃ¥got": 1951,
      "ateg": 1952,
      "Ġthrough": 1953,
      "onta": 1954,
      "ife": 1955,
      "ikin": 1956,
      "ĠgÃ¥r": 1957,
      "akt": 1958,
      "Ġsuunn": 1959,
      "ittÃ¤Ã¤": 1960,
      "ues": 1961,
      "hip": 1962,
      "vÃ¤r": 1963,
      "Ã¤sti": 1964,
      "Ġorgan": 1965,
      "Ġmar": 1966,
      "hing": 1967,
      "ĠbehÃ¶": 1968,
      "Ġeri": 1969,
      "ĠpitÃ¤": 1970,
      "Ġkv": 1971,
      "alth": 1972,
      "On": 1973,
      "ittÃ¤m": 1974,
      "ake": 1975,
      "Ġallt": 1976,
      "ĠÃĦ": 1977,
      "Ġbil": 1978,
      "Ġsiihen": 1979,
      "Ġdevelop": 1980,
      "Ġhuol": 1981,
      "vec": 1982,
      "Ġ`": 1983,
      "!!": 1984,
      "Ġsim": 1985,
      "let": 1986,
      "Å¡": 1987,
      "ena": 1988,
      "Ã¤d": 1989,
      "Ġinom": 1990,
      "Ġgl": 1991,
      "Ġlop": 1992,
      "Ġsedan": 1993,
      "Ġinformation": 1994,
      "ĠSverig": 1995,
      "alan": 1996,
      "ĠnÃ¤k": 1997,
      "ĠanvÃ¤n": 1998,
      "Ġdist": 1999,
      "Ġneed": 2000,
      "Ġmo": 2001,
      "erat": 2002,
      "Ġpop": 2003,
      "ittaa": 2004,
      "ĠZ": 2005,
      "Ġjonka": 2006,
      "Ġfollow": 2007,
      "Ġig": 2008,
      "les": 2009,
      "Ġkirjoit": 2010,
      "ĠtvÃ¥": 2011,
      "Ġany": 2012,
      "Ġem": 2013,
      "Ġmuka": 2014,
      "Ġans": 2015,
      "Ġedell": 2016,
      "Ġklo": 2017,
      "isessa": 2018,
      "ĠbÃ¥": 2019,
      "arm": 2020,
      "ample": 2021,
      "ics": 2022,
      "--------": 2023,
      "Ġanal": 2024,
      "Ġpuh": 2025,
      "isuud": 2026,
      "Ġette": 2027,
      "erkiksi": 2028,
      "ende": 2029,
      "Ġfound": 2030,
      "ĠNew": 2031,
      "outh": 2032,
      "Ġtaas": 2033,
      "eseen": 2034,
      "chool": 2035,
      "net": 2036,
      "ump": 2037,
      "Ġvarm": 2038,
      "yÃ¤": 2039,
      "ution": 2040,
      "ange": 2041,
      "ekt": 2042,
      "isto": 2043,
      "Ġod": 2044,
      "Ġnoin": 2045,
      "Ġuud": 2046,
      "Ġtod": 2047,
      "elin": 2048,
      "ĠvÃ¤hÃ¤n": 2049,
      "oitta": 2050,
      "uva": 2051,
      "Ġaihe": 2052,
      "Ġaikana": 2053,
      "Ġplay": 2054,
      "Ġpeople": 2055,
      "Ġproblem": 2056,
      "ET": 2057,
      "ĠjÃ¤Ã¤": 2058,
      "==": 2059,
      "Ġwell": 2060,
      "Ġlopp": 2061,
      "eman": 2062,
      "Ġing": 2063,
      "hkÃ¤": 2064,
      "vir": 2065,
      "Ġtest": 2066,
      "Ġtode": 2067,
      "illoin": 2068,
      "ikon": 2069,
      "ellan": 2070,
      "enÃ¤": 2071,
      "yttÃ¤Ã¤": 2072,
      "Ġhy": 2073,
      "utt": 2074,
      "Ġcoun": 2075,
      "Ġexp": 2076,
      "line": 2077,
      "ĠtehdÃ¤": 2078,
      "IT": 2079,
      "Ġproj": 2080,
      "Ġhalu": 2081,
      "ider": 2082,
      "tien": 2083,
      "Ġsiv": 2084,
      "Ġsuom": 2085,
      "atis": 2086,
      "rib": 2087,
      "Ġajan": 2088,
      "Ġtule": 2089,
      "Ġbli": 2090,
      "Ġsoc": 2091,
      "Ġsn": 2092,
      "Ġfilm": 2093,
      "Ġlag": 2094,
      "Ġkommun": 2095,
      "urr": 2096,
      "Ġsella": 2097,
      "âĢ¦": 2098,
      "ĠSam": 2099,
      "Ã¤hÃ¤n": 2100,
      "ays": 2101,
      "Ġyears": 2102,
      "inal": 2103,
      "ĠenemmÃ¤n": 2104,
      "Ġenerg": 2105,
      "ĠPar": 2106,
      "ĠniitÃ¤": 2107,
      "omb": 2108,
      "ual": 2109,
      "duk": 2110,
      "opp": 2111,
      "Ġpass": 2112,
      "sy": 2113,
      "ĠensimmÃ¤": 2114,
      "ukku": 2115,
      "Ġvuonna": 2116,
      "ects": 2117,
      "Ġselv": 2118,
      "holm": 2119,
      "IS": 2120,
      "ĠlisÃ¤Ã¤": 2121,
      "Ġnya": 2122,
      "Ġshe": 2123,
      "16": 2124,
      "ukseen": 2125,
      "orth": 2126,
      "ĠHÃ¤n": 2127,
      "Ġhos": 2128,
      "AR": 2129,
      "ikan": 2130,
      "Ġry": 2131,
      "tÃ¤ll": 2132,
      "ĠnÃ¥gon": 2133,
      "ityks": 2134,
      "ĠWe": 2135,
      "ustr": 2136,
      "etti": 2137,
      "14": 2138,
      "heten": 2139,
      "##": 2140,
      "ĠSuomen": 2141,
      "Ġkat": 2142,
      "itte": 2143,
      "ĠÃ¤l": 2144,
      "ota": 2145,
      "ĠlÃ¤n": 2146,
      "ĠSp": 2147,
      "ĠhÃ¶g": 2148,
      "kun": 2149,
      "ju": 2150,
      "meric": 2151,
      "ĠsjÃ¤lv": 2152,
      "Ġsil": 2153,
      "ix": 2154,
      "det": 2155,
      "valla": 2156,
      "Ġsamt": 2157,
      "oman": 2158,
      "Ã¤Ã¤k": 2159,
      "AT": 2160,
      "Ġthen": 2161,
      "uts": 2162,
      "iks": 2163,
      "Ġlast": 2164,
      "Ġjobb": 2165,
      "gn": 2166,
      "AL": 2167,
      "con": 2168,
      "Ġpati": 2169,
      "pÃ¤iv": 2170,
      "ĠFor": 2171,
      "Ġvik": 2172,
      "tÃ¤vÃ¤t": 2173,
      "Ã¥l": 2174,
      "mpÃ¤r": 2175,
      "Ġcontr": 2176,
      "Ġlike": 2177,
      "Ã¤in": 2178,
      "Ġduring": 2179,
      "gain": 2180,
      "ĠmikÃ¤": 2181,
      "vÃ¤nd": 2182,
      "ĠfÃ¶rs": 2183,
      "usten": 2184,
      "iew": 2185,
      "tock": 2186,
      "aam": 2187,
      "por": 2188,
      "cer": 2189,
      "assage": 2190,
      "ĠhjÃ¤l": 2191,
      "nyt": 2192,
      "gel": 2193,
      "ĠtÃ¤mÃ¤n": 2194,
      "iken": 2195,
      "Ġliitt": 2196,
      "Vi": 2197,
      "ator": 2198,
      "Ġtark": 2199,
      "Ġshould": 2200,
      "ĠMan": 2201,
      "Ġshow": 2202,
      "Ġhim": 2203,
      "ĠEi": 2204,
      "idaan": 2205,
      "Ġhela": 2206,
      "vice": 2207,
      "round": 2208,
      "0000": 2209,
      "rag": 2210,
      "unk": 2211,
      "13": 2212,
      "Ġbel": 2213,
      "Ġkohd": 2214,
      "ulta": 2215,
      "ĠMed": 2216,
      "Ġseuraa": 2217,
      "Ġour": 2218,
      "ĠFr": 2219,
      "Ġcell": 2220,
      "ĠTe": 2221,
      "17": 2222,
      "ĠsÃ¤tt": 2223,
      "Ġusing": 2224,
      "Ġmany": 2225,
      "ĠgÃ¥": 2226,
      "ĠmÃ¥ste": 2227,
      "Ġkund": 2228,
      "ĠmÃ¶j": 2229,
      "ates": 2230,
      "ative": 2231,
      "ester": 2232,
      "ĠtÃ¤rke": 2233,
      "earch": 2234,
      "ĠhenkilÃ¶": 2235,
      "ĠsiinÃ¤": 2236,
      "tta": 2237,
      "ĠQ": 2238,
      "gif": 2239,
      "Ġtodella": 2240,
      "Ġkuten": 2241,
      "cr": 2242,
      "EL": 2243,
      "Ġrah": 2244,
      "tif": 2245,
      "pen": 2246,
      "Ġtote": 2247,
      "johta": 2248,
      "berg": 2249,
      "ynn": 2250,
      "Ġpi": 2251,
      "hÃ¤n": 2252,
      "ĠMin": 2253,
      "ilu": 2254,
      "ĠhÃ¤nen": 2255,
      "ĠAnd": 2256,
      "yyd": 2257,
      "erar": 2258,
      "oli": 2259,
      "Ġ100": 2260,
      "tila": 2261,
      "juk": 2262,
      "Ġpid": 2263,
      "Ġ25": 2264,
      "ĠkÃ¤yttÃ¶": 2265,
      "ron": 2266,
      "Ã¤st": 2267,
      "Ġvide": 2268,
      "ades": 2269,
      "uman": 2270,
      "Ġhelt": 2271,
      "Ġgroup": 2272,
      "into": 2273,
      "Ġoff": 2274,
      "lag": 2275,
      "Ġyr": 2276,
      "ba": 2277,
      "Ġvaat": 2278,
      "Ġchild": 2279,
      "Ġsaan": 2280,
      "Ġ198": 2281,
      "Ġkiinn": 2282,
      "voit": 2283,
      "ĠfÃ¶rsta": 2284,
      ".,": 2285,
      "ĠOm": 2286,
      "ĠtÃ¤ssÃ¤": 2287,
      "Ġlar": 2288,
      "ĠVa": 2289,
      "Ġins": 2290,
      "ĠvÃ¥": 2291,
      "Ġwhat": 2292,
      "yÃ¶r": 2293,
      "Ġonn": 2294,
      "isuuden": 2295,
      "dom": 2296,
      "ĠMe": 2297,
      "Ġsit": 2298,
      "istu": 2299,
      "Ġcould": 2300,
      "Ġkar": 2301,
      "ĠsÃ¤ger": 2302,
      "ĠtyÃ¶n": 2303,
      "jel": 2304,
      "ogra": 2305,
      "empi": 2306,
      "istÃ¶": 2307,
      "Ġuus": 2308,
      "Ã¤Ã¤llÃ¤": 2309,
      "arly": 2310,
      "Ġvoim": 2311,
      "Ġettei": 2312,
      "jien": 2313,
      "Ġsak": 2314,
      "Ġagain": 2315,
      "tell": 2316,
      "ras": 2317,
      "ology": 2318,
      "ON": 2319,
      "Ġih": 2320,
      "innan": 2321,
      "Ġpra": 2322,
      "Ġfick": 2323,
      "ĠympÃ¤r": 2324,
      "Ġsuos": 2325,
      "__": 2326,
      "eni": 2327,
      "Ġpur": 2328,
      "verk": 2329,
      "ished": 2330,
      "Ġdenna": 2331,
      "Ġexper": 2332,
      "ots": 2333,
      "lex": 2334,
      "bild": 2335,
      "etag": 2336,
      "Ġprof": 2337,
      "Ġrequ": 2338,
      "ppa": 2339,
      "ĠHels": 2340,
      "ĠrÃ¤tt": 2341,
      "ttu": 2342,
      "sel": 2343,
      "ason": 2344,
      "anne": 2345,
      "Ġrad": 2346,
      "rik": 2347,
      "Ġprocess": 2348,
      "eter": 2349,
      "Ġmellan": 2350,
      "ĠAmeric": 2351,
      "Ġedes": 2352,
      "ring": 2353,
      "Jag": 2354,
      "ĠPer": 2355,
      "Ġyksi": 2356,
      "Ġhistor": 2357,
      "oss": 2358,
      "des": 2359,
      "ssÃ¤": 2360,
      "cka": 2361,
      "Ġvuo": 2362,
      "24": 2363,
      "kom": 2364,
      "Ġtekem": 2365,
      "ĠSc": 2366,
      "other": 2367,
      "Ã¶ssÃ¤": 2368,
      "Ġge": 2369,
      "Ġro": 2370,
      "Ġinf": 2371,
      "Ġexample": 2372,
      "else": 2373,
      "borg": 2374,
      "veckl": 2375,
      "ined": 2376,
      "vÃ¤l": 2377,
      "Ġcall": 2378,
      "Ġvah": 2379,
      "onen": 2380,
      "way": 2381,
      "Ġblog": 2382,
      "Ã¥t": 2383,
      "ĠnÃ¥gra": 2384,
      "Ġincre": 2385,
      "Ġilman": 2386,
      "ters": 2387,
      "Ġvers": 2388,
      "unnan": 2389,
      "ulation": 2390,
      "Ġsiir": 2391,
      "Ġ000": 2392,
      "Ġnope": 2393,
      "itel": 2394,
      "ĠkÃ¤r": 2395,
      "Ġmake": 2396,
      "Ġfall": 2397,
      "ilt": 2398,
      "cker": 2399,
      "amme": 2400,
      "Ġsija": 2401,
      "Ġmater": 2402,
      "Ġvuos": 2403,
      "ges": 2404,
      "Ġlik": 2405,
      "ized": 2406,
      "Ġtuli": 2407,
      "Ġvuotta": 2408,
      "isella": 2409,
      "25": 2410,
      "mmÃ¤r": 2411,
      "iselle": 2412,
      "Ġnam": 2413,
      "ĠenÃ¤Ã¤": 2414,
      "ently": 2415,
      "ĠAd": 2416,
      "ium": 2417,
      "Ġasio": 2418,
      "Ġ50": 2419,
      "yvÃ¤t": 2420,
      "ĠNe": 2421,
      "uok": 2422,
      "Ġjuuri": 2423,
      "Ġblev": 2424,
      "ĠhyÃ¶": 2425,
      "res": 2426,
      "komm": 2427,
      "Ġap": 2428,
      "Ġ24": 2429,
      "LÃ¤s": 2430,
      "ĠMutta": 2431,
      "ards": 2432,
      "Ġboth": 2433,
      "Ġlin": 2434,
      "ane": 2435,
      "ĠAll": 2436,
      "Ġmaks": 2437,
      "ksiÃ¤": 2438,
      "Ġent": 2439,
      "uksesta": 2440,
      "ativ": 2441,
      "ĠSw": 2442,
      "yll": 2443,
      "ĠSta": 2444,
      "ehd": 2445,
      "ful": 2446,
      "pÃ¤Ã¤": 2447,
      "Ġfort": 2448,
      "Ġca": 2449,
      "palvel": 2450,
      "uttu": 2451,
      "pel": 2452,
      "Ġvastaan": 2453,
      "23": 2454,
      "kus": 2455,
      "go": 2456,
      "Ġintern": 2457,
      "ves": 2458,
      "Ġchar": 2459,
      "Ġoper": 2460,
      "ĠKun": 2461,
      "Ġkom": 2462,
      "ĠDu": 2463,
      "ists": 2464,
      "ĠRo": 2465,
      "Ġjotain": 2466,
      "ukka": 2467,
      "Ġolet": 2468,
      "iversity": 2469,
      "Ġsat": 2470,
      "Ġfull": 2471,
      "Ġvai": 2472,
      "ĠHar": 2473,
      "ĠjÃ¤t": 2474,
      "Ġesimerkiksi": 2475,
      "eksi": 2476,
      "pla": 2477,
      "iod": 2478,
      "ĠKo": 2479,
      "iver": 2480,
      "Ã¤tta": 2481,
      "ĠsisÃ¤": 2482,
      "Ġgod": 2483,
      "Ġste": 2484,
      "ĠEx": 2485,
      "ĠfÃ¶rst": 2486,
      "Ġstudy": 2487,
      "Ġnumber": 2488,
      "isestÃ¤": 2489,
      "ĠÃĸ": 2490,
      "Ġbeing": 2491,
      "Ġsuomala": 2492,
      "Ġterve": 2493,
      "Ġsame": 2494,
      "Ġmade": 2495,
      "Ġprote": 2496,
      "lic": 2497,
      "ĠSverige": 2498,
      "Ġthree": 2499,
      "ĠCon": 2500,
      "Ġ2014": 2501,
      "ument": 2502,
      "yvÃ¤": 2503,
      "omat": 2504,
      "akka": 2505,
      "ident": 2506,
      "Ġpain": 2507,
      "Ġ2015": 2508,
      "Ġresul": 2509,
      "ms": 2510,
      "Ġnyky": 2511,
      "oissa": 2512,
      "Ġbro": 2513,
      "Ġord": 2514,
      "ĠsyÃ¶": 2515,
      "Ġvarit": 2516,
      "ettÃ¤": 2517,
      "Ġannat": 2518,
      "oita": 2519,
      "Ġsy": 2520,
      "Ġpros": 2521,
      "Ġnatur": 2522,
      "ĠPa": 2523,
      "cc": 2524,
      "Ġdesign": 2525,
      "anska": 2526,
      "ĠjÃ¤rjest": 2527,
      "Ã¤sen": 2528,
      "Ġimport": 2529,
      "hden": 2530,
      "Ġmieh": 2531,
      "Ġkyl": 2532,
      "tockholm": 2533,
      "Ġgratis": 2534,
      "Ġmm": 2535,
      "olan": 2536,
      "US": 2537,
      "Ġbas": 2538,
      "Ġever": 2539,
      "kat": 2540,
      "ittÃ¤in": 2541,
      "Ġolevan": 2542,
      "Ġeach": 2543,
      "ĠpÃ¤Ã¤t": 2544,
      "Ġkomp": 2545,
      "ĠkÃ¤nn": 2546,
      "ĠSh": 2547,
      "ĠstÃ¶r": 2548,
      "vÃ¤t": 2549,
      "ĠehkÃ¤": 2550,
      "pu": 2551,
      "toa": 2552,
      "Ġpartic": 2553,
      "ror": 2554,
      "Ġhtt": 2555,
      "kir": 2556,
      "sh": 2557,
      "ĠX": 2558,
      "Ġstat": 2559,
      "Ġcas": 2560,
      "Ġnon": 2561,
      "Ġruo": 2562,
      "Ġdifferent": 2563,
      "ĠÃ¤Ã¤n": 2564,
      "ĠInd": 2565,
      "Ġpois": 2566,
      "Ã¶lj": 2567,
      "Ġskriv": 2568,
      "utum": 2569,
      "ama": 2570,
      "ĠymmÃ¤r": 2571,
      "Ã¤hkÃ¶": 2572,
      "Ġner": 2573,
      "plats": 2574,
      "alt": 2575,
      "Ġpoh": 2576,
      "Ġide": 2577,
      "'t": 2578,
      "FÃ¶r": 2579,
      "cent": 2580,
      "ikke": 2581,
      "tart": 2582,
      "Ġkautta": 2583,
      "tyy": 2584,
      "Ġ197": 2585,
      "Ġbi": 2586,
      "itti": 2587,
      "ĠÃ¥t": 2588,
      "itaan": 2589,
      "ante": 2590,
      "Ġras": 2591,
      "ĠTÃ¤mÃ¤": 2592,
      "gre": 2593,
      "ze": 2594,
      "Ġback": 2595,
      "bjud": 2596,
      "ule": 2597,
      "Ġbor": 2598,
      "ision": 2599,
      "ĠEl": 2600,
      "Ġmel": 2601,
      "pol": 2602,
      "oto": 2603,
      "ĠelÃ¤m": 2604,
      "que": 2605,
      "Ġ%": 2606,
      "ĠVal": 2607,
      "bol": 2608,
      "nar": 2609,
      "Ġgu": 2610,
      "ouse": 2611,
      "sc": 2612,
      "Ġdom": 2613,
      "lÃ¤gg": 2614,
      "Ġsina": 2615,
      "jÃ¤rjest": 2616,
      "ĠOr": 2617,
      "Ġintr": 2618,
      "Ġgiv": 2619,
      "Ġcre": 2620,
      "Ġrisk": 2621,
      "sim": 2622,
      "usti": 2623,
      "use": 2624,
      "ĠepÃ¤": 2625,
      "ving": 2626,
      "Ġkaksi": 2627,
      "oci": 2628,
      "amaan": 2629,
      "ĠSen": 2630,
      "Ġ2013": 2631,
      "Ġvoidaan": 2632,
      "ĠGr": 2633,
      "Ġaff": 2634,
      "ission": 2635,
      "Ġjoku": 2636,
      "ĠSi": 2637,
      "isille": 2638,
      "Ġolivat": 2639,
      "inne": 2640,
      "iall": 2641,
      "Ġlead": 2642,
      "Ġwhile": 2643,
      "Ġkoh": 2644,
      "Ġiss": 2645,
      "overn": 2646,
      "Ġdisc": 2647,
      "ĠsÃ¤Ã¤": 2648,
      "unt": 2649,
      "Ġehd": 2650,
      "Ġkall": 2651,
      "Ġbefore": 2652,
      "ilman": 2653,
      "enne": 2654,
      "ĠĠĠĠĠĠĠ": 2655,
      "atter": 2656,
      "ience": 2657,
      "Ġ2012": 2658,
      "ottaa": 2659,
      "Ġarbets": 2660,
      "Suom": 2661,
      "ĠbÃ¥de": 2662,
      "Ġalue": 2663,
      "ujen": 2664,
      "ĠHow": 2665,
      "Ġsaada": 2666,
      "ĠvÃ¤n": 2667,
      "uvat": 2668,
      "Ġ21": 2669,
      "Ġlevel": 2670,
      "ĠLi": 2671,
      "ward": 2672,
      "ystÃ¤": 2673,
      "Ġvilket": 2674,
      "gar": 2675,
      "las": 2676,
      "Ġerity": 2677,
      "aut": 2678,
      "ivid": 2679,
      "hod": 2680,
      "Ġerila": 2681,
      "ature": 2682,
      "Ka": 2683,
      "uko": 2684,
      "Ġjopa": 2685,
      "Ġcar": 2686,
      "ustel": 2687,
      "ppen": 2688,
      "Ĥ¬": 2689,
      "ĠÃ¤nd": 2690,
      "olle": 2691,
      "Ġ2016": 2692,
      "ĠsisÃ¤l": 2693,
      "Ġnuor": 2694,
      "dre": 2695,
      "Ġep": 2696,
      "Ġkiel": 2697,
      "of": 2698,
      "Ġappro": 2699,
      "hus": 2700,
      "heen": 2701,
      "pres": 2702,
      "imes": 2703,
      "Ġaikaa": 2704,
      "gÃ¥r": 2705,
      "ĠlisÃ¤ksi": 2706,
      "Ġkomment": 2707,
      "Ġsupport": 2708,
      "ĠkÃ¤n": 2709,
      "sen": 2710,
      "Ġigen": 2711,
      "Ġx": 2712,
      "ows": 2713,
      "erad": 2714,
      "Ġdej": 2715,
      "ito": 2716,
      "40": 2717,
      "Ġhak": 2718,
      "kos": 2719,
      "enkin": 2720,
      "Ġvec": 2721,
      "Ġoma": 2722,
      "Ġbland": 2723,
      "Ġtyp": 2724,
      "tym": 2725,
      "ĠEU": 2726,
      "ĠSu": 2727,
      "arl": 2728,
      "ĠbehÃ¶ver": 2729,
      "čĊĠĠĠ": 2730,
      "Ġusko": 2731,
      "cep": 2732,
      "ury": 2733,
      "ĠsÃ¤k": 2734,
      "Ġpolit": 2735,
      "isista": 2736,
      "yksen": 2737,
      "read": 2738,
      "stÃ¤ll": 2739,
      "reen": 2740,
      "Ġkyse": 2741,
      "ĠHan": 2742,
      "ĠlÃ¥ng": 2743,
      "usk": 2744,
      "ĠtÃ¤ys": 2745,
      "ymmen": 2746,
      "malla": 2747,
      "Ġkaikk": 2748,
      "oint": 2749,
      "Ġhealth": 2750,
      "Ġsing": 2751,
      "Ġbecause": 2752,
      "Wh": 2753,
      "Ġger": 2754,
      "paa": 2755,
      "Ġ22": 2756,
      "vuo": 2757,
      "htum": 2758,
      "ield": 2759,
      "Ġluo": 2760,
      "ĠJoh": 2761,
      "ela": 2762,
      "ying": 2763,
      "atti": 2764,
      "Ġpan": 2765,
      "ĠTur": 2766,
      "ittu": 2767,
      "Ġhuon": 2768,
      "stan": 2769,
      "60": 2770,
      "ĠKu": 2771,
      "entar": 2772,
      "ĠEr": 2773,
      "Ġprogram": 2774,
      "Ġteam": 2775,
      "Ġaivan": 2776,
      "ĠHa": 2777,
      "mi": 2778,
      "Ġeng": 2779,
      "view": 2780,
      "Ġkunna": 2781,
      "ĠnÃ¤in": 2782,
      "ikt": 2783,
      "Ġtutkim": 2784,
      "Tr": 2785,
      "itle": 2786,
      "hand": 2787,
      "Ġpor": 2788,
      "eltÃ¤": 2789,
      "Ġjota": 2790,
      "https": 2791,
      "ĠmÃ¤nn": 2792,
      "Ġgrund": 2793,
      "atten": 2794,
      "Ġpublic": 2795,
      "Ġik": 2796,
      "ĠlÃ¤r": 2797,
      "ĠRa": 2798,
      "Se": 2799,
      "Ġkoti": 2800,
      "attaa": 2801,
      "Ġainakin": 2802,
      "KÃ¤Ã¤n": 2803,
      "Ġlig": 2804,
      "Ġkal": 2805,
      "anu": 2806,
      "ness": 2807,
      "ĠhÃ¤": 2808,
      "tÃ¤vÃ¤n": 2809,
      "hde": 2810,
      "Ġown": 2811,
      "He": 2812,
      "Ġwater": 2813,
      "Ġvaike": 2814,
      "ĠSk": 2815,
      "lighet": 2816,
      "Ġ<": 2817,
      "OR": 2818,
      "Ġ23": 2819,
      "Ġlife": 2820,
      "Ã¤ttÃ¤": 2821,
      "ple": 2822,
      "ĠvÃ¥ra": 2823,
      "Ġ2011": 2824,
      "po": 2825,
      "Ġmik": 2826,
      "Ġpot": 2827,
      "Jos": 2828,
      "Ġ#": 2829,
      "TA": 2830,
      "Ġalko": 2831,
      "Ġtaka": 2832,
      "KÃ¤Ã¤nnÃ¤": 2833,
      "Ġeven": 2834,
      "yÃ¶n": 2835,
      "emb": 2836,
      "vent": 2837,
      "Ġincluding": 2838,
      "urin": 2839,
      "tag": 2840,
      "iam": 2841,
      "Ġkertoo": 2842,
      "Ġ2017": 2843,
      "olk": 2844,
      "len": 2845,
      "ired": 2846,
      "igare": 2847,
      "ĠRes": 2848,
      "Ġcol": 2849,
      "Ġajat": 2850,
      "Ġir": 2851,
      "ient": 2852,
      "Ġvery": 2853,
      "Ġsna": 2854,
      "ody": 2855,
      "Ġsym": 2856,
      "kseen": 2857,
      "Ġvin": 2858,
      "ĠtÃ¤llÃ¤": 2859,
      "idan": 2860,
      "ips": 2861,
      "Ġdia": 2862,
      "Ġmies": 2863,
      "Ġreport": 2864,
      "Ġsever": 2865,
      "ipp": 2866,
      "Ġset": 2867,
      "ellinen": 2868,
      "Ġrele": 2869,
      "mark": 2870,
      "Ġriit": 2871,
      "gÃ¥ng": 2872,
      "Ġanalys": 2873,
      "empel": 2874,
      "ima": 2875,
      "ĠsiellÃ¤": 2876,
      "Ġdoes": 2877,
      "Ġ2010": 2878,
      "ituksen": 2879,
      "Ġkertaa": 2880,
      "www": 2881,
      "ension": 2882,
      "ĠNo": 2883,
      "ĠpitÃ¤isi": 2884,
      "Ġcare": 2885,
      "Ġdra": 2886,
      "llaan": 2887,
      "Ġmov": 2888,
      "ality": 2889,
      "pan": 2890,
      "orna": 2891,
      "aika": 2892,
      "Ġdessa": 2893,
      "inc": 2894,
      "bar": 2895,
      "Ġsal": 2896,
      "ages": 2897,
      "Ġjoh": 2898,
      "arv": 2899,
      "ĠfÃ¤r": 2900,
      "Ġbest": 2901,
      "Ġ;": 2902,
      "ĠÃ¥ter": 2903,
      "Ġilma": 2904,
      "utom": 2905,
      "istory": 2906,
      "ĠfrÃ¥g": 2907,
      "Ġschool": 2908,
      "eller": 2909,
      "uter": 2910,
      "Ġthose": 2911,
      "Ġmun": 2912,
      "acter": 2913,
      "ross": 2914,
      "teita": 2915,
      "gga": 2916,
      "ĠIl": 2917,
      "Ġresearch": 2918,
      "Ġvastaa": 2919,
      "ityksen": 2920,
      "Ġway": 2921,
      "Ġvel": 2922,
      "dig": 2923,
      "any": 2924,
      "Ġknown": 2925,
      "sson": 2926,
      "astaan": 2927,
      "Ġsecond": 2928,
      "Ġgra": 2929,
      "Ġsilloin": 2930,
      "Ġvia": 2931,
      "ettava": 2932,
      "Ġulko": 2933,
      "IL": 2934,
      "Ġsitt": 2935,
      "Ã¶ker": 2936,
      ".âĢĿ": 2937,
      "Ġsov": 2938,
      "ĠbÃ¤sta": 2939,
      "Ġstand": 2940,
      "Ġnow": 2941,
      "ush": 2942,
      "kiÃ¤": 2943,
      "isuutta": 2944,
      "kana": 2945,
      "Ġknow": 2946,
      "Ġkansa": 2947,
      "ĠfÃ¶retag": 2948,
      "usin": 2949,
      "Ġlaa": 2950,
      "uksi": 2951,
      "Ġlong": 2952,
      "Ġdid": 2953,
      "Ġkaupung": 2954,
      "ĠBo": 2955,
      "ytÃ¤": 2956,
      "Ġocc": 2957,
      "Ġcommun": 2958,
      "Ġadd": 2959,
      "digt": 2960,
      "NA": 2961,
      "jar": 2962,
      "ivi": 2963,
      "Ġ@": 2964,
      "Ġmaan": 2965,
      "ero": 2966,
      "Ã¶te": 2967,
      "Ġammat": 2968,
      "ĠmissÃ¤": 2969,
      "uots": 2970,
      "Ġosall": 2971,
      "Ġinnan": 2972,
      "Ġmas": 2973,
      "ĠÃħ": 2974,
      "vien": 2975,
      "Ġsvar": 2976,
      "tam": 2977,
      "ema": 2978,
      "Ġtyck": 2979,
      "bor": 2980,
      "Ġget": 2981,
      "Ġkuinka": 2982,
      "ĠComm": 2983,
      "Ġottaa": 2984,
      "kohta": 2985,
      "Ġplats": 2986,
      "johtaja": 2987,
      "Ġalkaa": 2988,
      "Ġmol": 2989,
      "tui": 2990,
      "eg": 2991,
      "Ġtarvitse": 2992,
      "ĠSuomessa": 2993,
      "ove": 2994,
      "atio": 2995,
      "annut": 2996,
      "ĠEngl": 2997,
      "Ġhit": 2998,
      "Ġhalua": 2999,
      "Ġnor": 3000,
      "Ġstora": 3001,
      "struc": 3002,
      "Ġpat": 3003,
      "Ġ40": 3004,
      "ĠlÃ¤ng": 3005,
      "slag": 3006,
      "Ġmatch": 3007,
      "ĠgÃ¤": 3008,
      "ĠUniversity": 3009,
      "Ġidag": 3010,
      "ennus": 3011,
      "ash": 3012,
      "Ġeg": 3013,
      "ices": 3014,
      "chn": 3015,
      "Ġpala": 3016,
      "Ġbuild": 3017,
      "ĠtÃ¤yt": 3018,
      "emi": 3019,
      "Ġutveckl": 3020,
      "istic": 3021,
      "Ġchang": 3022,
      "Ġkuuka": 3023,
      "ora": 3024,
      "ĠOch": 3025,
      "Ġkanske": 3026,
      "ically": 3027,
      "Ġpresent": 3028,
      "ements": 3029,
      "Ġusein": 3030,
      "ura": 3031,
      "ures": 3032,
      "tÃ¤mÃ¤Ã¤n": 3033,
      "ĠkÃ¤yttÃ¤Ã¤": 3034,
      "Ġalku": 3035,
      "ides": 3036,
      "Ġkokem": 3037,
      "Ġsmall": 3038,
      "ĠCl": 3039,
      "ĠlÃ¶ytyy": 3040,
      "yi": 3041,
      "gs": 3042,
      "ization": 3043,
      "jelm": 3044,
      "ĠPh": 3045,
      "ĠsÃ¤hkÃ¶": 3046,
      "osed": 3047,
      "Ġflera": 3048,
      "jÃ¤t": 3049,
      "isena": 3050,
      "ehto": 3051,
      "ames": 3052,
      "Ġsamma": 3053,
      "ostaa": 3054,
      "Ar": 3055,
      "Ġ*": 3056,
      "Ġnous": 3057,
      "Ġpers": 3058,
      "rar": 3059,
      "Ġmag": 3060,
      "Ġ2018": 3061,
      "Ġpaika": 3062,
      "Ġnel": 3063,
      "UN": 3064,
      "Ġoikein": 3065,
      "tak": 3066,
      "iltÃ¤": 3067,
      "lan": 3068,
      "Ġjatku": 3069,
      "ĠMon": 3070,
      "Ġinne": 3071,
      "ĠFin": 3072,
      "uksista": 3073,
      "Ġfem": 3074,
      "Ġkuva": 3075,
      "omet": 3076,
      "Ã¥s": 3077,
      "osa": 3078,
      "Ġworld": 3079,
      "Ġniiden": 3080,
      "Ã¥d": 3081,
      "usto": 3082,
      "Ġalltid": 3083,
      "Ġ2020": 3084,
      "Ġlev": 3085,
      "oittaa": 3086,
      "start": 3087,
      "emassa": 3088,
      "Ġmill": 3089,
      "tio": 3090,
      "Ġpap": 3091,
      "ueen": 3092,
      "uni": 3093,
      "ĠHelsing": 3094,
      "teja": 3095,
      "umaan": 3096,
      "ĠIs": 3097,
      "ĠUnited": 3098,
      "Ġtoiv": 3099,
      "Ġhitta": 3100,
      "Ġactiv": 3101,
      "put": 3102,
      "Ġkev": 3103,
      "ES": 3104,
      "ids": 3105,
      "Ã¥ller": 3106,
      "tas": 3107,
      "Ã¤Ã¤kÃ¤r": 3108,
      "tik": 3109,
      "Ġerbjud": 3110,
      "uteen": 3111,
      "alia": 3112,
      "Ġproduk": 3113,
      "ĠJul": 3114,
      "ĠKr": 3115,
      "Ġcor": 3116,
      "Ġorig": 3117,
      "ulti": 3118,
      "ader": 3119,
      "Ġenn": 3120,
      "ĠVar": 3121,
      "ĠStockholm": 3122,
      "```": 3123,
      "ĠmÃ¤Ã¤rÃ¤": 3124,
      "Ġfollowing": 3125,
      "ĠminÃ¤": 3126,
      "Ġsuhte": 3127,
      "Ġtekn": 3128,
      "Ã¤ck": 3129,
      "ination": 3130,
      "ED": 3131,
      "Ġkysym": 3132,
      "imp": 3133,
      "ellt": 3134,
      "Ã¶ll": 3135,
      "ĠanvÃ¤nd": 3136,
      "ĠFran": 3137,
      "ret": 3138,
      "uor": 3139,
      "sible": 3140,
      "Ġtag": 3141,
      "tiÃ¤": 3142,
      "Ġkuv": 3143,
      "Äį": 3144,
      "attom": 3145,
      "Ġpatients": 3146,
      "Ġcr": 3147,
      "ĠyhtÃ¤": 3148,
      "ĠtÃ¤tÃ¤": 3149,
      "Ġjoita": 3150,
      "Ġkorke": 3151,
      "Al": 3152,
      "Ġnet": 3153,
      "Ġfil": 3154,
      "Ġalle": 3155,
      "Ġline": 3156,
      "Ġtro": 3157,
      "Ġperiod": 3158,
      "Ġsee": 3159,
      "Ġsocial": 3160,
      "Ġvak": 3161,
      "Ġlist": 3162,
      "Ġtreat": 3163,
      "sten": 3164,
      "](": 3165,
      "nas": 3166,
      "che": 3167,
      "Ġoll": 3168,
      "Ġsanoo": 3169,
      "mar": 3170,
      "Ã¤Ã¤rÃ¤": 3171,
      "Ġtor": 3172,
      "Ġche": 3173,
      "Ġagainst": 3174,
      "kais": 3175,
      "Ġdown": 3176,
      "tyÃ¤": 3177,
      "ĠWor": 3178,
      "ived": 3179,
      "To": 3180,
      "hets": 3181,
      "ĠStat": 3182,
      "Ġsignific": 3183,
      "27": 3184,
      "Ġsyy": 3185,
      "row": 3186,
      "Ġfind": 3187,
      "Ġlater": 3188,
      "pÃ¶": 3189,
      "atu": 3190,
      "28": 3191,
      "Ja": 3192,
      "ĠChr": 3193,
      "26": 3194,
      "attu": 3195,
      "ĠgÃ¤ller": 3196,
      "ĠHer": 3197,
      "Ġcountr": 3198,
      "Ġsett": 3199,
      "Äĳ": 3200,
      "astaa": 3201,
      "Ġlain": 3202,
      "blished": 3203,
      "05": 3204,
      "osin": 3205,
      "Ġopisk": 3206,
      "Ġbak": 3207,
      "Ġname": 3208,
      "Ã¤ttre": 3209,
      "oop": 3210,
      "ithub": 3211,
      "eri": 3212,
      "Ġkirja": 3213,
      "yden": 3214,
      "ĠBe": 3215,
      "teki": 3216,
      "Ġinfl": 3217,
      "Ġmaterial": 3218,
      "29": 3219,
      "Ġantaa": 3220,
      "work": 3221,
      "toon": 3222,
      "imen": 3223,
      "Ġmethod": 3224,
      "Ġsaid": 3225,
      "ĠtÃ¤Ã¤llÃ¤": 3226,
      "ility": 3227,
      "okka": 3228,
      "Ġexempel": 3229,
      "iston": 3230,
      "Ġjosta": 3231,
      "ĠThey": 3232,
      "ĠSan": 3233,
      "Ġluonn": 3234,
      "Ġjal": 3235,
      "ĠmÃ¤nnisk": 3236,
      "Ġditt": 3237,
      "uin": 3238,
      "Ġdep": 3239,
      "istus": 3240,
      "Ġhieman": 3241,
      "Ġkerran": 3242,
      "yp": 3243,
      "ĠBl": 3244,
      "kad": 3245,
      "emen": 3246,
      "ttel": 3247,
      "uud": 3248,
      "ĠpyÃ¶r": 3249,
      "isessÃ¤": 3250,
      "plan": 3251,
      "Ġsto": 3252,
      "tom": 3253,
      "ĠNyt": 3254,
      "Ġfour": 3255,
      "Ġarti": 3256,
      "istel": 3257,
      "ĠjÃ¤sen": 3258,
      "tors": 3259,
      "Ġtavoit": 3260,
      "Ġren": 3261,
      "Ġcent": 3262,
      "Ġmaksa": 3263,
      "Ġresult": 3264,
      "Ġtem": 3265,
      "ĠSer": 3266,
      "Ġheti": 3267,
      "Ġpost": 3268,
      "II": 3269,
      "Ġjoul": 3270,
      "Ġtila": 3271,
      "Ġofta": 3272,
      "samm": 3273,
      "45": 3274,
      "ĠtÃ¤stÃ¤": 3275,
      "Ġchildren": 3276,
      "Ġstate": 3277,
      "ually": 3278,
      "Ġvarje": 3279,
      "Ġviikon": 3280,
      "ĠCan": 3281,
      "ective": 3282,
      "Ġhoit": 3283,
      "Ġdess": 3284,
      "ount": 3285,
      "Ġvoisi": 3286,
      "asin": 3287,
      "alis": 3288,
      "ingar": 3289,
      "ĠAmerican": 3290,
      "Ġtuk": 3291,
      "Ġteki": 3292,
      "Ġakti": 3293,
      "Ġfunction": 3294,
      "Ġtyy": 3295,
      "lj": 3296,
      "Ã¤rk": 3297,
      "terna": 3298,
      "jia": 3299,
      "lack": 3300,
      "Ġslut": 3301,
      "Ġref": 3302,
      "ĠOy": 3303,
      "hemm": 3304,
      "oilla": 3305,
      "Ġri": 3306,
      "istr": 3307,
      "Ġimportant": 3308,
      "crip": 3309,
      "Ġmukana": 3310,
      "ĠpÃ¤ivÃ¤": 3311,
      "skap": 3312,
      "ĠNÃ¤r": 3313,
      "Ġgood": 3314,
      "app": 3315,
      "Ġsjuk": 3316,
      "):": 3317,
      "Ġextra": 3318,
      "Ġsvenska": 3319,
      "Ġkort": 3320,
      "Ġmaailman": 3321,
      "Ġkur": 3322,
      "Ġread": 3323,
      "Ġconf": 3324,
      "tember": 3325,
      "ograph": 3326,
      "Ġkier": 3327,
      "Ġrepres": 3328,
      "press": 3329,
      "Ġbre": 3330,
      "Ġorder": 3331,
      "ture": 3332,
      "Ġindivid": 3333,
      "yÃ¶s": 3334,
      "pail": 3335,
      "tober": 3336,
      "AS": 3337,
      "far": 3338,
      "Ġlog": 3339,
      "Ġava": 3340,
      "Ġopen": 3341,
      "Ġhuomio": 3342,
      "Ġ28": 3343,
      "Ġnog": 3344,
      "ential": 3345,
      "Ġmuch": 3346,
      "ĠbÃ¤ttre": 3347,
      "Ġoman": 3348,
      "github": 3349,
      "ilj": 3350,
      "ako": 3351,
      "ĠSwed": 3352,
      "Ġkvinn": 3353,
      "au": 3354,
      "pril": 3355,
      "co": 3356,
      "Ġhotell": 3357,
      "Ġmuod": 3358,
      "ape": 3359,
      "iitos": 3360,
      "Ġcontin": 3361,
      "Ġequ": 3362,
      "giv": 3363,
      "Ġill": 3364,
      "Ġhuv": 3365,
      "lut": 3366,
      "Ġanti": 3367,
      "Ġgovern": 3368,
      "talet": 3369,
      "Ġreturn": 3370,
      "cis": 3371,
      "ĠEd": 3372,
      "bs": 3373,
      "Ġ27": 3374,
      "Ã¤kÃ¶": 3375,
      "oot": 3376,
      "Ã¤yt": 3377,
      "oms": 3378,
      "gin": 3379,
      "Ġintress": 3380,
      "oni": 3381,
      "ner": 3382,
      "Ġkra": 3383,
      "ording": 3384,
      "Ġstill": 3385,
      "Ġkasv": 3386,
      "Ġ2019": 3387,
      "Ġclass": 3388,
      "maa": 3389,
      "itsi": 3390,
      "Ġpoli": 3391,
      "Ġys": 3392,
      "istyÃ¶": 3393,
      "vs": 3394,
      "Ġsai": 3395,
      "ĠThere": 3396,
      "Ġkoskaan": 3397,
      "Ġbok": 3398,
      "ather": 3399,
      "uce": 3400,
      "stand": 3401,
      "ointi": 3402,
      "Ġpah": 3403,
      "Ġappear": 3404,
      "Ġfly": 3405,
      "eral": 3406,
      "Ġemp": 3407,
      "ĠtÃ¶": 3408,
      "ai": 3409,
      "hall": 3410,
      "><": 3411,
      "ĠmÃ¥l": 3412,
      "OS": 3413,
      "lek": 3414,
      "ĠjÃ¤": 3415,
      "Ġvol": 3416,
      "uista": 3417,
      "Ġeuroa": 3418,
      "ĠShe": 3419,
      "Ġ2009": 3420,
      "ĠJohn": 3421,
      "ĠnÃ¤yt": 3422,
      "Ġday": 3423,
      "we": 3424,
      "ĠJum": 3425,
      "Ġtavalla": 3426,
      "koon": 3427,
      "ID": 3428,
      "Pro": 3429,
      "arr": 3430,
      "uvan": 3431,
      "ged": 3432,
      "Ġsnabb": 3433,
      "elev": 3434,
      "atch": 3435,
      "kal": 3436,
      "Ġsilm": 3437,
      "Ġbort": 3438,
      "arin": 3439,
      "ĠAt": 3440,
      "Ġtapah": 3441,
      "ĠIf": 3442,
      "ĠvÃ¤ldigt": 3443,
      "Ġput": 3444,
      "Ġmuita": 3445,
      "ĠtÃ¤hÃ¤n": 3446,
      "Ġrest": 3447,
      "Ġjout": 3448,
      "ĠlÃ¥": 3449,
      "mista": 3450,
      "Ġ26": 3451,
      "elleen": 3452,
      "ĠPol": 3453,
      "Ġarea": 3454,
      "Ã¤Ã¤nn": 3455,
      "03": 3456,
      "bility": 3457,
      "It": 3458,
      "ĠGen": 3459,
      "ĠvÃ¤lillÃ¤": 3460,
      "ĠlÃ¤s": 3461,
      "sm": 3462,
      "Ġwithin": 3463,
      "Ġonline": 3464,
      "Ġcom": 3465,
      "ĠKir": 3466,
      "amma": 3467,
      "viron": 3468,
      "iety": 3469,
      "Ġevent": 3470,
      "ĠsÃ¤ker": 3471,
      "Ġcalled": 3472,
      "imin": 3473,
      "Ġpris": 3474,
      "UT": 3475,
      "Ġengl": 3476,
      "alin": 3477,
      "OM": 3478,
      "Ġtullut": 3479,
      "ĠlÃ¤he": 3480,
      "Ġdina": 3481,
      "Ġjulk": 3482,
      "ĠHowever": 3483,
      "lloin": 3484,
      "Ġpower": 3485,
      "ĠstÃ¤": 3486,
      "yk": 3487,
      "Ġ196": 3488,
      "Ġfar": 3489,
      "Ġsignificant": 3490,
      "Ġkot": 3491,
      "ants": 3492,
      "Ġgj": 3493,
      "Ġmitt": 3494,
      "Ġmuun": 3495,
      "Ġrece": 3496,
      "email": 3497,
      "Den": 3498,
      "Ġcir": 3499,
      "entral": 3500,
      "ovember": 3501,
      "As": 3502,
      "Ġdoc": 3503,
      "ikÃ¶": 3504,
      "able": 3505,
      "Ġenkel": 3506,
      "bet": 3507,
      "Ġmor": 3508,
      "Ġedelleen": 3509,
      "add": 3510,
      "erm": 3511,
      "ikku": 3512,
      "Ġversion": 3513,
      "alue": 3514,
      "Ġrefer": 3515,
      "Ġost": 3516,
      "vers": 3517,
      "band": 3518,
      "Ġingen": 3519,
      "ccess": 3520,
      "met": 3521,
      "lor": 3522,
      "inut": 3523,
      "Ġarvio": 3524,
      "ĠhÃ¤l": 3525,
      "ural": 3526,
      "oid": 3527,
      "itive": 3528,
      "iter": 3529,
      "09": 3530,
      "ĠtÃ¤ysin": 3531,
      "ĠCoun": 3532,
      "ĠNor": 3533,
      "Ġjohta": 3534,
      "uan": 3535,
      "az": 3536,
      "ham": 3537,
      "Ġwr": 3538,
      "Ġfamily": 3539,
      "Ġsaanut": 3540,
      "ines": 3541,
      "Ġparha": 3542,
      "Ġiden": 3543,
      "iaan": 3544,
      "35": 3545,
      "Re": 3546,
      "ave": 3547,
      "Ġolis": 3548,
      "ĠAm": 3549,
      "ationer": 3550,
      "Ġvoivat": 3551,
      "ini": 3552,
      "tiga": 3553,
      "Ġnorm": 3554,
      "Ġesiin": 3555,
      "jana": 3556,
      "ological": 3557,
      "ĠgÃ¥ng": 3558,
      "Ġtoinen": 3559,
      "the": 3560,
      "Ġhuman": 3561,
      "Ġ0000": 3562,
      "Ġregion": 3563,
      "Ġcer": 3564,
      "Ġmassage": 3565,
      "Ã¥rt": 3566,
      "sammans": 3567,
      "Ġsul": 3568,
      "kn": 3569,
      "ĠtjÃ¤n": 3570,
      "Ġannan": 3571,
      "Ġtotal": 3572,
      "Ġaround": 3573,
      "Ġpsy": 3574,
      "Ġmuuten": 3575,
      "OT": 3576,
      "posti": 3577,
      "ĠlÃ¤hte": 3578,
      "Ġmajor": 3579,
      "ðŁ": 3580,
      "Ġligger": 3581,
      "Ġ...": 3582,
      "ĠhÃ¶r": 3583,
      "ica": 3584,
      "alainen": 3585,
      "Ġperuste": 3586,
      "kade": 3587,
      "Ġjotta": 3588,
      "04": 3589,
      "Un": 3590,
      "lob": 3591,
      "ensk": 3592,
      "bum": 3593,
      "Ġve": 3594,
      "ĠOlen": 3595,
      "Ġtoiminta": 3596,
      "Ġcurr": 3597,
      "iaa": 3598,
      "Ġlim": 3599,
      "jet": 3600,
      "uksiin": 3601,
      "ĠgÃ¥n": 3602,
      "08": 3603,
      "Ġplace": 3604,
      "Ġz": 3605,
      "ĠLu": 3606,
      "Ġvanh": 3607,
      "elsen": 3608,
      "ĠhyvÃ¤ks": 3609,
      "tter": 3610,
      "ĠPal": 3611,
      "Ġbild": 3612,
      "Ġcontain": 3613,
      "Ġkam": 3614,
      "erta": 3615,
      "ball": 3616,
      "Ġliian": 3617,
      "tiet": 3618,
      "fÃ¤r": 3619,
      "jur": 3620,
      "ival": 3621,
      "Ġseason": 3622,
      "ikkaa": 3623,
      "ox": 3624,
      "Ei": 3625,
      "Ġenligt": 3626,
      "Ġpelaa": 3627,
      "oike": 3628,
      "Ã¤ff": 3629,
      "Ġjolla": 3630,
      "ems": 3631,
      "Ġtycker": 3632,
      "ler": 3633,
      "Ġbased": 3634,
      "Ġaddition": 3635,
      "hor": 3636,
      "Ġdesc": 3637,
      "Ġtidigare": 3638,
      "Ġ2021": 3639,
      "Ġmiet": 3640,
      "ils": 3641,
      "ĠfÃ¥tt": 3642,
      "Ġhus": 3643,
      "ĠIntern": 3644,
      "Ġsamalla": 3645,
      "Ġonko": 3646,
      "ony": 3647,
      "Ġseveral": 3648,
      "Ġskall": 3649,
      "Ġmeas": 3650,
      "ij": 3651,
      "Ġsince": 3652,
      "ining": 3653,
      "Ġvaihto": 3654,
      "Ġuusi": 3655,
      "inti": 3656,
      ".)": 3657,
      "Ġkoke": 3658,
      "Ġcour": 3659,
      "Ġless": 3660,
      "Ġredan": 3661,
      "Ġchange": 3662,
      "Ġart": 3663,
      "kaisu": 3664,
      "ĠelÃ¤mÃ¤n": 3665,
      "Ã¶st": 3666,
      "ird": 3667,
      "Ġfre": 3668,
      "Ġelok": 3669,
      "imat": 3670,
      "ĠkÃ¤yttÃ¤": 3671,
      "ially": 3672,
      "Ġsuper": 3673,
      "ĠSte": 3674,
      "De": 3675,
      "Ġsw": 3676,
      "utti": 3677,
      "cks": 3678,
      "Ġeftersom": 3679,
      "istan": 3680,
      "oitus": 3681,
      "Ã¥ende": 3682,
      "Ġkomma": 3683,
      "This": 3684,
      "aster": 3685,
      "Ġvuoksi": 3686,
      "Ġfler": 3687,
      "urg": 3688,
      "osti": 3689,
      "čĊĠ": 3690,
      "Ġcells": 3691,
      "kÃ¤n": 3692,
      "gress": 3693,
      "Ġai": 3694,
      "kort": 3695,
      "uutta": 3696,
      "Ġ29": 3697,
      "Ġair": 3698,
      "Ġbecame": 3699,
      "Ġneuv": 3700,
      "Ġhetk": 3701,
      "ĠtrÃ¤n": 3702,
      "Ġtrad": 3703,
      "bÃ¤r": 3704,
      "Ã¶stÃ¤": 3705,
      "Ġkro": 3706,
      "Ġmest": 3707,
      "kaup": 3708,
      "Ġcontrol": 3709,
      "omaan": 3710,
      "kesk": 3711,
      "Ġearly": 3712,
      "air": 3713,
      "Ġgrow": 3714,
      "ĠMay": 3715,
      "day": 3716,
      "isteri": 3717,
      "Ġtop": 3718,
      "ĠpÃ¤Ã¤stÃ¤": 3719,
      "skar": 3720,
      "ĠAB": 3721,
      "ĠjÃ¤rj": 3722,
      "Ġmatka": 3723,
      "Ġcommon": 3724,
      "isenÃ¤": 3725,
      "Ġalka": 3726,
      "Ġkaiken": 3727,
      "tan": 3728,
      "Ġasti": 3729,
      "Ġ2008": 3730,
      "teiden": 3731,
      "Ġuntil": 3732,
      "ĠNy": 3733,
      "Ġjoskus": 3734,
      "Ġcle": 3735,
      "angu": 3736,
      "itsem": 3737,
      "Ġdise": 3738,
      "Ġaam": 3739,
      "ĠHÃ¤r": 3740,
      "Ġwithout": 3741,
      "Ġtake": 3742,
      "bu": 3743,
      "Ġtekee": 3744,
      "Ġprom": 3745,
      "book": 3746,
      "hÃ¥ll": 3747,
      "Ġdock": 3748,
      "set": 3749,
      "ĠGe": 3750,
      "Ġavulla": 3751,
      "vÃ¥r": 3752,
      "Ġoffic": 3753,
      "Ġlever": 3754,
      "Ġvarmasti": 3755,
      "Ġmiss": 3756,
      "Ġevery": 3757,
      "Ġconc": 3758,
      "ĠheidÃ¤n": 3759,
      "iat": 3760,
      "ĠEurope": 3761,
      "Ġverksam": 3762,
      "Ġhome": 3763,
      "Ġcase": 3764,
      "gifter": 3765,
      "Om": 3766,
      "Ġ$": 3767,
      "ences": 3768,
      "kinn": 3769,
      "bru": 3770,
      "erc": 3771,
      "misen": 3772,
      "Ġ{": 3773,
      "ĠâĤ¬": 3774,
      "ĠyleensÃ¤": 3775,
      "mÃ¤n": 3776,
      "Ġassoci": 3777,
      "ĠPÃ¥": 3778,
      "Ġobj": 3779,
      "Ġconsider": 3780,
      "illaan": 3781,
      "stit": 3782,
      "ource": 3783,
      "Ġlarge": 3784,
      "IK": 3785,
      "gÃ¶r": 3786,
      "ĠYou": 3787,
      "ĠSÃ¥": 3788,
      "Ġhien": 3789,
      "iipp": 3790,
      "Ġsosia": 3791,
      "ĠnÃ¤t": 3792,
      "ĠWorld": 3793,
      "ĠyhdessÃ¤": 3794,
      "Ġlait": 3795,
      "Ġcap": 3796,
      "Ġriktigt": 3797,
      "Ġkannattaa": 3798,
      "Ġgre": 3799,
      "Ġdue": 3800,
      "kap": 3801,
      "ĠerittÃ¤in": 3802,
      "etÃ¤": 3803,
      "Ġoften": 3804,
      "Ġ60": 3805,
      "Ġsaman": 3806,
      "tel": 3807,
      "Ġresults": 3808,
      "kein": 3809,
      "Ġkum": 3810,
      "Ġlj": 3811,
      "inska": 3812,
      "Ã¶ka": 3813,
      "ban": 3814,
      "Ġru": 3815,
      "Ġturvall": 3816,
      "].": 3817,
      "ĠSv": 3818,
      "ĠAtt": 3819,
      "Ġtalo": 3820,
      "Ġimpro": 3821,
      "Ġuuden": 3822,
      "Ġcondition": 3823,
      "ĠpitkÃ¤": 3824,
      "uma": 3825,
      "Ġonnist": 3826,
      "ĠPu": 3827,
      "ĠStates": 3828,
      "ender": 3829,
      "Ġtuom": 3830,
      "udet": 3831,
      "Ġinneh": 3832,
      "Ġrespon": 3833,
      "ĠmistÃ¤": 3834,
      "Ġmust": 3835,
      "rin": 3836,
      "konom": 3837,
      "Ġcoll": 3838,
      "jak": 3839,
      "====": 3840,
      "ummer": 3841,
      "\":": 3842,
      "Ġdon": 3843,
      "Ġkm": 3844,
      "bi": 3845,
      "dagen": 3846,
      "kul": 3847,
      "ĠNational": 3848,
      "Ġkoir": 3849,
      "ĠkÃ¶r": 3850,
      "luv": 3851,
      "ared": 3852,
      "anc": 3853,
      "joon": 3854,
      "Ġbygg": 3855,
      "ilen": 3856,
      "AM": 3857,
      "Ġkolme": 3858,
      "Ġkvar": 3859,
      "oksen": 3860,
      "tioner": 3861,
      "Ġesc": 3862,
      "stitu": 3863,
      "Ġmur": 3864,
      "iri": 3865,
      "06": 3866,
      "Ġmob": 3867,
      "Ġvast": 3868,
      "vious": 3869,
      "Ġlook": 3870,
      "jÃ¤rjestelm": 3871,
      "ĠlisÃ¤": 3872,
      "orts": 3873,
      "âĢĶ": 3874,
      "reg": 3875,
      "ĠkÃ¤y": 3876,
      "ments": 3877,
      "Ġest": 3878,
      "Ġrav": 3879,
      "uminen": 3880,
      "Ġfree": 3881,
      "hl": 3882,
      "ĠStr": 3883,
      "mod": 3884,
      "Ġkiv": 3885,
      "ĠThese": 3886,
      "ases": 3887,
      "inte": 3888,
      "ectr": 3889,
      "ilar": 3890,
      "Ġmarkkin": 3891,
      "itter": 3892,
      "Ã¥lla": 3893,
      "ĠjÃ¤m": 3894,
      "bel": 3895,
      "kuuta": 3896,
      "Ġinde": 3897,
      "ĠpÃ¤Ã¤se": 3898,
      "Ġgreat": 3899,
      "andet": 3900,
      "Ġlika": 3901,
      "Ġmahdollista": 3902,
      "ĠhjÃ¤lp": 3903,
      "Ġgick": 3904,
      "Ġkokona": 3905,
      "ĠNu": 3906,
      "ĠJe": 3907,
      "uste": 3908,
      "ume": 3909,
      "Ã¤si": 3910,
      "Ġved": 3911,
      "Ġstudents": 3912,
      "Ġage": 3913,
      "ift": 3914,
      "ĠGer": 3915,
      "urther": 3916,
      "sÃ¤ttning": 3917,
      "kuun": 3918,
      "ĠSouth": 3919,
      "Ġperhe": 3920,
      "ief": 3921,
      "yyn": 3922,
      "ĠNi": 3923,
      "Ġproper": 3924,
      "ĠTer": 3925,
      "Ġprosent": 3926,
      "ĠnÃ¤h": 3927,
      "itor": 3928,
      "ize": 3929,
      "Ġhund": 3930,
      "uli": 3931,
      "Ã¶teborg": 3932,
      "Title": 3933,
      "uneet": 3934,
      "Ġtosi": 3935,
      "full": 3936,
      "ests": 3937,
      "gelm": 3938,
      "Ġcaus": 3939,
      "unto": 3940,
      "âĢ¢": 3941,
      "yra": 3942,
      "Ġporr": 3943,
      "ansk": 3944,
      "Ġdeb": 3945,
      "ppi": 3946,
      "rÃ¤tt": 3947,
      "Ġmanag": 3948,
      "Ġstrateg": 3949,
      "cle": 3950,
      "ands": 3951,
      "Ġjouk": 3952,
      "33": 3953,
      "Ġtapahtum": 3954,
      "ĠmÃ¶": 3955,
      "',": 3956,
      "fall": 3957,
      "Ġprost": 3958,
      "Ġhead": 3959,
      "Ġservice": 3960,
      "Ġbody": 3961,
      "Ġkaupungin": 3962,
      "usiness": 3963,
      "hol": 3964,
      "ĠsÃ¥d": 3965,
      "Ġderas": 3966,
      "vara": 3967,
      "Ġenglann": 3968,
      "ettua": 3969,
      "Ġinclude": 3970,
      "Ġtakia": 3971,
      "07": 3972,
      "ĠmeidÃ¤n": 3973,
      "Ġaikaan": 3974,
      "Ġhelpp": 3975,
      "Ġspecial": 3976,
      "Ġtror": 3977,
      "tala": 3978,
      "ysti": 3979,
      "Ġreal": 3980,
      "ija": 3981,
      "Ġ--": 3982,
      "Ġobser": 3983,
      "02": 3984,
      "Ġdejting": 3985,
      "Ġmall": 3986,
      "ĠâĢĶ": 3987,
      "Ġhttps": 3988,
      "uuta": 3989,
      "Ġvarmaan": 3990,
      "Ġeduc": 3991,
      "klar": 3992,
      "Ġthink": 3993,
      "Ġosaa": 3994,
      "Ġruots": 3995,
      "Ġtillsammans": 3996,
      "atte": 3997,
      "Ġag": 3998,
      "iker": 3999,
      "Ġkons": 4000,
      "Ġmass": 4001,
      "ength": 4002,
      "Ġwant": 4003,
      "isuudessa": 4004,
      "ream": 4005,
      "ygg": 4006,
      "Ġabs": 4007,
      "ova": 4008,
      "ĠmÃ¤nniskor": 4009,
      "ament": 4010,
      "Ġspa": 4011,
      "ĠvÃ¤Ã¤r": 4012,
      "uksella": 4013,
      "Ġlak": 4014,
      "Ġgiven": 4015,
      "OL": 4016,
      "su": 4017,
      "ĠWar": 4018,
      "Ġlow": 4019,
      "Ġpyr": 4020,
      "Ġmeta": 4021,
      "Ġques": 4022,
      "ĠVir": 4023,
      "aminen": 4024,
      "Ġpeng": 4025,
      "olution": 4026,
      "Ġlocal": 4027,
      "ostnad": 4028,
      "Ġajatt": 4029,
      "ĠvÃ¤lt": 4030,
      "Ġopet": 4031,
      "ĠÃ¶pp": 4032,
      "ĠkehittÃ¤m": 4033,
      "IM": 4034,
      "Ġinsp": 4035,
      "ights": 4036,
      "Ġhere": 4037,
      "htiÃ¶": 4038,
      "Ġlyh": 4039,
      "Poista": 4040,
      "vices": 4041,
      "ivu": 4042,
      "??": 4043,
      "hdist": 4044,
      "Ġmodel": 4045,
      "Ġtoisen": 4046,
      "Ġesta": 4047,
      "Ġright": 4048,
      "ĠEt": 4049,
      "imo": 4050,
      "unti": 4051,
      "Ġtap": 4052,
      "----------------": 4053,
      "Ġok": 4054,
      "Ġinvol": 4055,
      "Ġven": 4056,
      "anden": 4057,
      "ĠCar": 4058,
      "tera": 4059,
      "lleet": 4060,
      "Ġvaihe": 4061,
      "intaan": 4062,
      "Ġvahv": 4063,
      "Ġly": 4064,
      "Ġosallist": 4065,
      "vr": 4066,
      "Ġsuccess": 4067,
      "entation": 4068,
      "osto": 4069,
      "Ġsent": 4070,
      "ING": 4071,
      "Ġtall": 4072,
      "Ġdriv": 4073,
      "intaa": 4074,
      "ĠĠĠĠĠĠĠĠĠĠĠĠĠĠĠĠĠĠĠĠĠĠĠĠĠĠĠĠĠĠĠĠ": 4075,
      "ĠFe": 4076,
      "Ã¤ra": 4077,
      "99": 4078,
      "Ġrunt": 4079,
      "ppar": 4080,
      "Ġmid": 4081,
      "Ġpress": 4082,
      "Ġkunde": 4083,
      "Ġdevelopment": 4084,
      "ĠlÃ¤hes": 4085,
      "ided": 4086,
      "kke": 4087,
      "Ġstruc": 4088,
      "Ġyhden": 4089,
      "Ġtoimii": 4090,
      "etaan": 4091,
      "Ġrakenn": 4092,
      "ĠanvÃ¤nda": 4093,
      "Ġmut": 4094,
      "Ġvuor": 4095,
      "Ã¤nk": 4096,
      "ĠlÃ¤het": 4097,
      "ĠsmÃ¥": 4098,
      "llis": 4099,
      "Ġegen": 4100,
      "uksissa": 4101,
      "Ġwebb": 4102,
      "Ġvarsin": 4103,
      "edag": 4104,
      "tional": 4105,
      "36": 4106,
      "ĠDec": 4107,
      "Ġanother": 4108,
      "wh": 4109,
      "Ġvideo": 4110,
      "lu": 4111,
      "ĠDetta": 4112,
      "Ġuut": 4113,
      "Ġruoka": 4114,
      "44": 4115,
      "tade": 4116,
      "pÃ¤in": 4117,
      "Ġissue": 4118,
      "fe": 4119,
      "yle": 4120,
      "Ġkuitenkaan": 4121,
      "koa": 4122,
      "oihin": 4123,
      "Ġbon": 4124,
      "Ġimpl": 4125,
      "Ġbehand": 4126,
      "Ġsyys": 4127,
      "Ã¥ga": 4128,
      "ress": 4129,
      "ĠNorth": 4130,
      "Ġspecies": 4131,
      "Ġcy": 4132,
      "tav": 4133,
      "Ġtype": 4134,
      "ĠhyÃ¶d": 4135,
      "drig": 4136,
      "38": 4137,
      "PS": 4138,
      "yyttÃ¤": 4139,
      "baka": 4140,
      "Ã¤lle": 4141,
      "Ġmenee": 4142,
      "ĠAss": 4143,
      "Ġinsta": 4144,
      "immat": 4145,
      "kÃ¤Ã¤": 4146,
      "Ġfel": 4147,
      "inner": 4148,
      "Ġongelm": 4149,
      "urch": 4150,
      "55": 4151,
      "IST": 4152,
      "37": 4153,
      "Ġkolm": 4154,
      "Ch": 4155,
      "ĠComp": 4156,
      "Ġ0000000": 4157,
      "Ġfix": 4158,
      "rak": 4159,
      "Ġprim": 4160,
      "Ġaldrig": 4161,
      "Ġminun": 4162,
      "Ġfood": 4163,
      "miseen": 4164,
      "Ġcm": 4165,
      "back": 4166,
      "Ġryhm": 4167,
      "oka": 4168,
      "vely": 4169,
      "Ġcharacter": 4170,
      "2015": 4171,
      "ĠAustr": 4172,
      "ampa": 4173,
      "Ġlink": 4174,
      "Ġspecific": 4175,
      "Ġwomen": 4176,
      "osen": 4177,
      "Ġsair": 4178,
      "Ġsinun": 4179,
      "ĠUS": 4180,
      "Ġmiljoon": 4181,
      "Ġsugg": 4182,
      "ĠGu": 4183,
      "ald": 4184,
      "imman": 4185,
      "Ġmemb": 4186,
      "Ġfast": 4187,
      "ask": 4188,
      "ĠhÃ¥ll": 4189,
      "conom": 4190,
      "Ġmuiden": 4191,
      "Ġcity": 4192,
      "Ġmuist": 4193,
      "Ġtiden": 4194,
      "tation": 4195,
      "ĠnÃ¤mÃ¤": 4196,
      "Ġhom": 4197,
      "Ġsomet": 4198,
      "okset": 4199,
      "ustus": 4200,
      "ĠLisÃ¤ksi": 4201,
      "Ġsar": 4202,
      "Trans": 4203,
      "48": 4204,
      "Ġpil": 4205,
      "Ġmulti": 4206,
      "though": 4207,
      "ogn": 4208,
      "Ġkap": 4209,
      "Ġpopulation": 4210,
      "uod": 4211,
      "Ġ2007": 4212,
      "fon": 4213,
      "Ġsingle": 4214,
      "Ġfew": 4215,
      "Ġutbild": 4216,
      "mÃ¤": 4217,
      "tti": 4218,
      "Ġjoissa": 4219,
      "Ġamong": 4220,
      "Ġkvinnor": 4221,
      "Ġwon": 4222,
      "Ġfund": 4223,
      "Ġenviron": 4224,
      "39": 4225,
      "Ġworks": 4226,
      "utkim": 4227,
      "Ġleg": 4228,
      "olta": 4229,
      "Ġvih": 4230,
      "Ġmaailm": 4231,
      "ties": 4232,
      "Ġsitu": 4233,
      "Ġexam": 4234,
      "Ġneg": 4235,
      "Ġwar": 4236,
      "pression": 4237,
      "Ġtuleva": 4238,
      "âĢĿ.": 4239,
      "Ġpuolesta": 4240,
      "eth": 4241,
      "ping": 4242,
      "Ġasiakka": 4243,
      "Ġjolloin": 4244,
      "ĠomrÃ¥": 4245,
      "ĠpÃ¤Ã¤lle": 4246,
      "aks": 4247,
      "wards": 4248,
      "ottom": 4249,
      "ĠAug": 4250,
      "cept": 4251,
      "vasta": 4252,
      "Ġprostitu": 4253,
      "astus": 4254,
      "Ġteks": 4255,
      "Ġaltern": 4256,
      "ĠVan": 4257,
      "Ġtuntuu": 4258,
      "Ġmina": 4259,
      "stÃ¥n": 4260,
      "ĠYork": 4261,
      "ĠKar": 4262,
      "Ġdirect": 4263,
      "Ġvapa": 4264,
      "ander": 4265,
      "ĠtiedÃ¤": 4266,
      "ĠnÃ¤yttÃ¤Ã¤": 4267,
      "Ġmiksi": 4268,
      "Ġeas": 4269,
      "AK": 4270,
      "yhm": 4271,
      "yhte": 4272,
      "Ġuh": 4273,
      "Ġtakaisin": 4274,
      "âĢĿ,": 4275,
      "hib": 4276,
      "ways": 4277,
      "ĠpÃ¤ivÃ¤n": 4278,
      "Ġtilante": 4279,
      "Ġrek": 4280,
      "Ġalong": 4281,
      "uraa": 4282,
      "Ġbed": 4283,
      "Ġear": 4284,
      "Ġhoita": 4285,
      "Ġkuuluu": 4286,
      "jorde": 4287,
      "Ġken": 4288,
      "Ġtreatment": 4289,
      "Ġkaa": 4290,
      "Ġgovernment": 4291,
      "Ġtechn": 4292,
      "Ġsijoit": 4293,
      "Ġtillbaka": 4294,
      "rop": 4295,
      "kra": 4296,
      "opa": 4297,
      "ĠSep": 4298,
      "koul": 4299,
      "ĠrÃ¶r": 4300,
      "opim": 4301,
      "ĠTill": 4302,
      "ettel": 4303,
      "Ġreduc": 4304,
      "tÃ¤vÃ¤Ã¤": 4305,
      "alit": 4306,
      "Ġrauh": 4307,
      "ĠSm": 4308,
      "kki": 4309,
      "elf": 4310,
      "isissa": 4311,
      "http": 4312,
      "Ġverkligen": 4313,
      "Ġ>": 4314,
      "Ġatta": 4315,
      "2014": 4316,
      "Ġdirekt": 4317,
      "ĠstÃ¤ll": 4318,
      "Ġstart": 4319,
      "Ġihmiset": 4320,
      "ĠSwedish": 4321,
      "aston": 4322,
      "arch": 4323,
      "Ġperform": 4324,
      "Ã¤li": 4325,
      "Ġimm": 4326,
      "31": 4327,
      "idence": 4328,
      "icka": 4329,
      "=\"": 4330,
      "ĠGo": 4331,
      "ĠMat": 4332,
      "ĠÂ·": 4333,
      "ised": 4334,
      "Ġyll": 4335,
      "Ġmonth": 4336,
      "Ġjoiden": 4337,
      "Ġmindre": 4338,
      "ivit": 4339,
      "ittanut": 4340,
      "ĠBrit": 4341,
      "ĠYle": 4342,
      "Ġfot": 4343,
      "Ġrol": 4344,
      "apan": 4345,
      "Ġposition": 4346,
      "neksi": 4347,
      "talo": 4348,
      "ray": 4349,
      "aton": 4350,
      "ĠtietÃ¤Ã¤": 4351,
      "ĠyhteistyÃ¶": 4352,
      "Ġskill": 4353,
      "Ġstyr": 4354,
      "Men": 4355,
      "Ġpari": 4356,
      "pec": 4357,
      "TT": 4358,
      "bro": 4359,
      "fac": 4360,
      "lands": 4361,
      "oph": 4362,
      "Ġjuttu": 4363,
      "atan": 4364,
      "ĠtÃ¤lla": 4365,
      "ĠfÃ¶lj": 4366,
      "isellÃ¤": 4367,
      "face": 4368,
      "Ġprac": 4369,
      "Fr": 4370,
      "Ġpaik": 4371,
      "jalle": 4372,
      "EM": 4373,
      "Ġtiedot": 4374,
      "vik": 4375,
      "ĠMark": 4376,
      "Ġfakt": 4377,
      ");": 4378,
      "Ġdam": 4379,
      "bland": 4380,
      "ĠmeillÃ¤": 4381,
      "Ġasian": 4382,
      "voin": 4383,
      "ĠUSA": 4384,
      "dress": 4385,
      "Ġphys": 4386,
      "Ġalbum": 4387,
      "Ġmenn": 4388,
      "Ã¤rsk": 4389,
      "isit": 4390,
      "47": 4391,
      "itar": 4392,
      "fin": 4393,
      "ĠNÃ¤": 4394,
      "Ġbill": 4395,
      "Ã¤mn": 4396,
      "Ġkeskustel": 4397,
      "Ġbar": 4398,
      "Ġtehty": 4399,
      "ĠDÃ¤r": 4400,
      "Ġuskon": 4401,
      "Ġmean": 4402,
      "Ġnorma": 4403,
      "etter": 4404,
      "Ã¤ltÃ¤": 4405,
      "Ġhans": 4406,
      "Ġtradition": 4407,
      "ĠPl": 4408,
      "Ġpersoner": 4409,
      "Ġaktiv": 4410,
      "ĠlÃ¤tt": 4411,
      "Ġyksity": 4412,
      "bart": 4413,
      "lopp": 4414,
      "light": 4415,
      "Ġpaper": 4416,
      "ĠðŁ": 4417,
      "ustann": 4418,
      "Ġpersonal": 4419,
      "ources": 4420,
      "jille": 4421,
      "Ġvarten": 4422,
      "ĠlÃ¶yd": 4423,
      "Kun": 4424,
      "ried": 4425,
      "pper": 4426,
      "Ġlasten": 4427,
      "Ã¥nga": 4428,
      "Ġyritys": 4429,
      "Ġsopim": 4430,
      "Ġkiinni": 4431,
      "Ġgjort": 4432,
      "Ġlok": 4433,
      "Min": 4434,
      "Ġenkelt": 4435,
      "Ġrap": 4436,
      "koja": 4437,
      "ague": 4438,
      "uone": 4439,
      "och": 4440,
      "Ġallow": 4441,
      "Ġlaw": 4442,
      "tidigt": 4443,
      "voim": 4444,
      "ĠmyÃ¶n": 4445,
      "No": 4446,
      "ĠAfr": 4447,
      "astig": 4448,
      "Ġvalmist": 4449,
      "ĠniistÃ¤": 4450,
      "Ġky": 4451,
      "Ġenglanniksi": 4452,
      "Ġchanges": 4453,
      "ĠHon": 4454,
      "AC": 4455,
      "Ġ31": 4456,
      "ĠinnebÃ¤r": 4457,
      "bles": 4458,
      "ilable": 4459,
      "ĠnÃ¤hd": 4460,
      "46": 4461,
      "kut": 4462,
      "itsee": 4463,
      "90": 4464,
      "Ġjohon": 4465,
      "ĠinfÃ¶r": 4466,
      "Ġsinne": 4467,
      "pend": 4468,
      "kv": 4469,
      "istÃ¤Ã¤": 4470,
      "empaa": 4471,
      "edic": 4472,
      "Ġelectr": 4473,
      "UR": 4474,
      "ĠBut": 4475,
      "ĠÃ¤ndÃ¥": 4476,
      "Ġvapaa": 4477,
      "ĠhyvÃ¤Ã¤": 4478,
      "Ġrecord": 4479,
      "We": 4480,
      "ieh": 4481,
      "80": 4482,
      "Ġpoint": 4483,
      "Ã¤mm": 4484,
      "ogen": 4485,
      "Ġmight": 4486,
      "ĠAc": 4487,
      "ested": 4488,
      "js": 4489,
      "Ġ)": 4490,
      "Ġverran": 4491,
      "Ġbilder": 4492,
      "Ġotta": 4493,
      "ipal": 4494,
      "Ġkohta": 4495,
      "yne": 4496,
      "........": 4497,
      "Ġomista": 4498,
      "ĠCol": 4499,
      "ĠSin": 4500,
      "orten": 4501,
      "Ġkymmen": 4502,
      "vas": 4503,
      "oksia": 4504,
      "ison": 4505,
      "ued": 4506,
      "Ġklass": 4507,
      "ektiv": 4508,
      "kuussa": 4509,
      "Ġspe": 4510,
      "itell": 4511,
      "Ġdisk": 4512,
      "Ġsaira": 4513,
      "ales": 4514,
      "ones": 4515,
      "ĠSch": 4516,
      "ware": 4517,
      "ĠkesÃ¤": 4518,
      "emÃ¤Ã¤n": 4519,
      "Ġviikko": 4520,
      "Ġeteen": 4521,
      "Ġconn": 4522,
      "vaan": 4523,
      "ydessÃ¤": 4524,
      "Ex": 4525,
      "Ġwrit": 4526,
      "jun": 4527,
      "yss": 4528,
      "Ġcrit": 4529,
      "Ġlap": 4530,
      "Ġ2000": 4531,
      "ml": 4532,
      "elser": 4533,
      "Ġpysty": 4534,
      "Ġseries": 4535,
      "Ġriipp": 4536,
      "joita": 4537,
      "Ġtesta": 4538,
      "ĠTra": 4539,
      "ffic": 4540,
      "ĠfÃ¶rb": 4541,
      "my": 4542,
      "Ġtoimi": 4543,
      "jassa": 4544,
      "Ġtulla": 4545,
      "ĠSoc": 4546,
      "Ġdagar": 4547,
      "ĠSo": 4548,
      "Ġidentif": 4549,
      "Ġvatten": 4550,
      "ĠstÃ¥r": 4551,
      "ĠstÃ¶rre": 4552,
      "tionen": 4553,
      "Ġfunger": 4554,
      "Ġpossible": 4555,
      "Ã¤lÃ¤": 4556,
      "Ġtasa": 4557,
      "Ġlih": 4558,
      "Ġhistory": 4559,
      "Ġbad": 4560,
      "Ã¤ns": 4561,
      "Ġkaver": 4562,
      "inki": 4563,
      "invÃ¤l": 4564,
      "oker": 4565,
      "Ġlangu": 4566,
      "49": 4567,
      "Ġkoske": 4568,
      "Ġhemma": 4569,
      "ĠOp": 4570,
      "AA": 4571,
      "Ġarg": 4572,
      "Ġuusia": 4573,
      "ĠPoh": 4574,
      "Ġmerkit": 4575,
      "Ġavs": 4576,
      "Ġmihin": 4577,
      "ydd": 4578,
      "Ġmedl": 4579,
      "jois": 4580,
      "toim": 4581,
      "Ġtuon": 4582,
      "Ġsuoraan": 4583,
      "ĠWill": 4584,
      "Ġekonom": 4585,
      "Ġtietoa": 4586,
      "uen": 4587,
      "Ġasioita": 4588,
      "Ġkoulut": 4589,
      "uon": 4590,
      "Ġanim": 4591,
      "Ġorganis": 4592,
      "Ġhaluaa": 4593,
      "yst": 4594,
      "ĠmÃ¤": 4595,
      "Ġunderstand": 4596,
      "ĠOc": 4597,
      "Ã¶tt": 4598,
      "Ġmodern": 4599,
      "Ġris": 4600,
      "ĠHel": 4601,
      "rum": 4602,
      "ĠGerman": 4603,
      "Ġleft": 4604,
      "Ġomaa": 4605,
      "Ġfail": 4606,
      "Ġfinska": 4607,
      "Ġlea": 4608,
      "ĠpÃ¤Ã¤s": 4609,
      "kyl": 4610,
      "Ġensi": 4611,
      "jaan": 4612,
      "alc": 4613,
      "pite": 4614,
      "ĠKor": 4615,
      "Ġcult": 4616,
      "jasta": 4617,
      "Ġnopeasti": 4618,
      "Ġyhdist": 4619,
      "ĠReg": 4620,
      "Ġsaattaa": 4621,
      "Ãĸver": 4622,
      "Ġ?": 4623,
      "La": 4624,
      "ĠHall": 4625,
      "atin": 4626,
      "Ġgjorde": 4627,
      "ĠhÃ¥r": 4628,
      "Ġsama": 4629,
      "ules": 4630,
      "Ġkell": 4631,
      "Ġvalue": 4632,
      "bert": 4633,
      "estÃ¤ni": 4634,
      "essaan": 4635,
      "2017": 4636,
      "ĠHur": 4637,
      "Ġ195": 4638,
      "ĠII": 4639,
      "Ġmuassa": 4640,
      "ĠAfter": 4641,
      "tynyt": 4642,
      "Ġuutta": 4643,
      "osis": 4644,
      "Ġprostituerade": 4645,
      "Ġpresident": 4646,
      "hemp": 4647,
      "Ġindic": 4648,
      "ĠhetkellÃ¤": 4649,
      "Ġbetal": 4650,
      "Ġhonom": 4651,
      "Ġkaikille": 4652,
      "oda": 4653,
      "ationen": 4654,
      "Ġtulisi": 4655,
      "eminen": 4656,
      "ĠvÃ¤rl": 4657,
      "Ġminulle": 4658,
      "emmat": 4659,
      "Ġcover": 4660,
      "itystÃ¤": 4661,
      "ĠUnder": 4662,
      "ĠPR": 4663,
      "ĠtÃ¤nÃ¤Ã¤n": 4664,
      "ux": 4665,
      "ĠpÃ¤Ã¤tÃ¶": 4666,
      "anna": 4667,
      "ĠlÃ¶y": 4668,
      "Ġdisease": 4669,
      "ĠvÃ¤x": 4670,
      "eskriv": 4671,
      "hemmin": 4672,
      "Ġgeneral": 4673,
      "Ġnytt": 4674,
      "32": 4675,
      "Ġsanoa": 4676,
      "Ġreac": 4677,
      "Ġteach": 4678,
      "film": 4679,
      "Ġtog": 4680,
      "kkÃ¤Ã¤": 4681,
      "IV": 4682,
      "stra": 4683,
      "ĠsÃ¤ga": 4684,
      "Ġsilti": 4685,
      "Ġsyd": 4686,
      "ĠtyÃ¶nteki": 4687,
      "ttuur": 4688,
      "yer": 4689,
      "isc": 4690,
      "Ġonkin": 4691,
      "tific": 4692,
      "igher": 4693,
      "Ġsimilar": 4694,
      "Ġrole": 4695,
      "Ã¤tÃ¤": 4696,
      "Ġnec": 4697,
      "orter": 4698,
      "Ġsenaste": 4699,
      "ellisen": 4700,
      "Ġminut": 4701,
      "ched": 4702,
      "ssa": 4703,
      "Ġnational": 4704,
      "Ġyhteisk": 4705,
      "ĠSal": 4706,
      "Suomen": 4707,
      "Ġongel": 4708,
      "Ġdeath": 4709,
      "ĠUpp": 4710,
      "ĠstÃ¶d": 4711,
      "Ġstress": 4712,
      "Ġparticular": 4713,
      "Ġsuo": 4714,
      "Ġkuts": 4715,
      "ĠlÃ¤pi": 4716,
      "Ġfolk": 4717,
      "Ġ2006": 4718,
      "pain": 4719,
      "Ġlah": 4720,
      "Ġdiagn": 4721,
      "otus": 4722,
      "joiden": 4723,
      "ette": 4724,
      "Ġstra": 4725,
      "ittle": 4726,
      "ĠEuroop": 4727,
      "vid": 4728,
      "Ġuppd": 4729,
      "Ġsinulle": 4730,
      "Ġkval": 4731,
      "alais": 4732,
      "Ġformer": 4733,
      "Ġtemper": 4734,
      "uki": 4735,
      "ĠTV": 4736,
      "Ġist": 4737,
      "Ġbud": 4738,
      "Ġfanta": 4739,
      "ĠVenÃ¤": 4740,
      "Ġjoukku": 4741,
      "Ġprovide": 4742,
      "Ġyliop": 4743,
      "illeen": 4744,
      "Ġcomb": 4745,
      "ecti": 4746,
      "ĠStud": 4747,
      "UL": 4748,
      "ĠsÃ¶ker": 4749,
      "late": 4750,
      "Te": 4751,
      "Ġvalta": 4752,
      "Ta": 4753,
      "Ġskr": 4754,
      "ĠmielestÃ¤": 4755,
      "ĠCity": 4756,
      "ĠlÃ¤ngre": 4757,
      "ĠÎ": 4758,
      "rict": 4759,
      "Ġapplic": 4760,
      "ĠAnn": 4761,
      "Ġaccess": 4762,
      "rel": 4763,
      "otel": 4764,
      "Ġsek": 4765,
      "inkerta": 4766,
      "Ġ80": 4767,
      "Ġtje": 4768,
      "tens": 4769,
      "ĠIsl": 4770,
      "Ġhopp": 4771,
      "Ġstudies": 4772,
      "2016": 4773,
      "ĠHal": 4774,
      "tend": 4775,
      "Ġpengar": 4776,
      "Ġhuvud": 4777,
      "Ġmarknad": 4778,
      "ĠmÃ¤n": 4779,
      "Ġned": 4780,
      "Ġrum": 4781,
      "ĠEli": 4782,
      "ya": 4783,
      "etar": 4784,
      "ĠdÃ¤rfÃ¶r": 4785,
      "Ġanalysis": 4786,
      "ĠRep": 4787,
      "Ġhava": 4788,
      "icros": 4789,
      "Ġdescrib": 4790,
      "Ġsem": 4791,
      "Ġbehav": 4792,
      "jalla": 4793,
      "Ġtext": 4794,
      "ĠgÃ¤r": 4795,
      "ĠEm": 4796,
      "itto": 4797,
      "ney": 4798,
      "kes": 4799,
      "ubb": 4800,
      "kit": 4801,
      "ĠSchool": 4802,
      "innin": 4803,
      "Ġpaikka": 4804,
      "ikaa": 4805,
      "ither": 4806,
      "yg": 4807,
      "uis": 4808,
      "Ġpiir": 4809,
      "ymp": 4810,
      "ĠWhen": 4811,
      "Ġprevious": 4812,
      "ekti": 4813,
      "ĠAv": 4814,
      "etr": 4815,
      "ĠystÃ¤v": 4816,
      "Ġperf": 4817,
      "ussi": 4818,
      "nade": 4819,
      "Ġside": 4820,
      "ĊĠĠĠ": 4821,
      "Ġkovin": 4822,
      "ĠApp": 4823,
      "Ã©n": 4824,
      "ctor": 4825,
      "uksien": 4826,
      "Ġmuu": 4827,
      "fa": 4828,
      "Me": 4829,
      "Ġvaikuttaa": 4830,
      "Ġintro": 4831,
      "Ġsens": 4832,
      "ĠMyÃ¶s": 4833,
      "Ġperusteella": 4834,
      "yksiÃ¤": 4835,
      "Ġshort": 4836,
      "Ġstort": 4837,
      "Ã¶g": 4838,
      "Va": 4839,
      "Ġavailable": 4840,
      "frÃ¥n": 4841,
      "EK": 4842,
      "Ġolemassa": 4843,
      "Ġjuo": 4844,
      "ĠMarch": 4845,
      "ĠkÃ¤yttÃ¶Ã¶n": 4846,
      "Ġstandard": 4847,
      "Ġdays": 4848,
      "ĠEtt": 4849,
      "ians": 4850,
      "Ġprocent": 4851,
      ",\"": 4852,
      "Ġview": 4853,
      "itiv": 4854,
      "yssÃ¤": 4855,
      "Ġfav": 4856,
      "Ġexpl": 4857,
      "etet": 4858,
      "AP": 4859,
      "ĠHen": 4860,
      "Ġansvar": 4861,
      "ĠAugust": 4862,
      "ought": 4863,
      "Ġanta": 4864,
      "ĠDr": 4865,
      "Ġreview": 4866,
      "Ġlight": 4867,
      "ca": 4868,
      "anuary": 4869,
      "massa": 4870,
      "hdys": 4871,
      "vissa": 4872,
      "estin": 4873,
      "Ġolleet": 4874,
      "()": 4875,
      "elee": 4876,
      "Ġhous": 4877,
      "Ġkaupp": 4878,
      "Ġfamil": 4879,
      "Ġbetter": 4880,
      "ĠTar": 4881,
      "ĠNiin": 4882,
      "2013": 4883,
      "Ġhttp": 4884,
      "oung": 4885,
      "ley": 4886,
      "Ġtimes": 4887,
      "roup": 4888,
      "Ġvaikut": 4889,
      "Ġcont": 4890,
      "Ã¡n": 4891,
      "Ġhelposti": 4892,
      "ellisesti": 4893,
      "Ġvarious": 4894,
      "antunti": 4895,
      "Ġtarpe": 4896,
      "ĠMer": 4897,
      "ocus": 4898,
      "ĠyllÃ¤": 4899,
      "Ġable": 4900,
      "etin": 4901,
      "ĠlÃ¤Ã¤kÃ¤r": 4902,
      "gÃ¤r": 4903,
      "Ġremain": 4904,
      "Ġkerro": 4905,
      "Ġkuol": 4906,
      "ĠmennÃ¤": 4907,
      "95": 4908,
      "Ġfeatur": 4909,
      "Ġruotsiksi": 4910,
      "ĠPe": 4911,
      "ĠKomm": 4912,
      "osten": 4913,
      "ittely": 4914,
      "utaan": 4915,
      "forman": 4916,
      "troll": 4917,
      "ĠKan": 4918,
      "Ġenergy": 4919,
      "esten": 4920,
      "Ġhittar": 4921,
      "Ġwin": 4922,
      "ltÃ¤": 4923,
      "Ġbecome": 4924,
      "NÃ¤r": 4925,
      "Nu": 4926,
      "Ġmax": 4927,
      "Ġeriko": 4928,
      "Ġolin": 4929,
      "Ġmusi": 4930,
      "Ġsanoi": 4931,
      "Ġturn": 4932,
      "iil": 4933,
      "Ġgam": 4934,
      "Ġsaker": 4935,
      "ether": 4936,
      "bygg": 4937,
      "rev": 4938,
      "ĠsinÃ¤": 4939,
      "Ġminuut": 4940,
      "unki": 4941,
      "Ġmelko": 4942,
      "Ġaloit": 4943,
      "inna": 4944,
      "Ġelin": 4945,
      "ĠSeptember": 4946,
      "ĠCo": 4947,
      "ikat": 4948,
      "ĠikÃ¤": 4949,
      "Ġself": 4950,
      "Ġlevels": 4951,
      "lÃ¤n": 4952,
      "yyden": 4953,
      "34": 4954,
      "Ġfinal": 4955,
      "tsÃ¥": 4956,
      "tÃ¤minen": 4957,
      "hansa": 4958,
      "OK": 4959,
      "Ã¤mp": 4960,
      "kko": 4961,
      "ineet": 4962,
      "olf": 4963,
      "Ġkilpail": 4964,
      "ples": 4965,
      "illar": 4966,
      "ineen": 4967,
      "ĠJapan": 4968,
      "ĠpÃ¤Ã¤tt": 4969,
      "ĠBar": 4970,
      "Ġgrad": 4971,
      "Ġvisar": 4972,
      "Ġnorth": 4973,
      "Ġcountry": 4974,
      "ĠihmisiÃ¤": 4975,
      "Ġsuunnittel": 4976,
      "ĠBer": 4977,
      "Ġyhteis": 4978,
      "Ġprojekt": 4979,
      "Ġhigher": 4980,
      "Ġmedia": 4981,
      "ĠKos": 4982,
      "din": 4983,
      "ĠmetsÃ¤": 4984,
      "OP": 4985,
      "ĠPor": 4986,
      "ĠyhteydessÃ¤": 4987,
      "taja": 4988,
      "Ġalkoi": 4989,
      "Ġnext": 4990,
      "idor": 4991,
      "Ġkron": 4992,
      "tyi": 4993,
      "Ko": 4994,
      "uunn": 4995,
      "indows": 4996,
      "estar": 4997,
      "zz": 4998,
      "ĠJune": 4999,
      "Ġyleis": 5000,
      "Ġluon": 5001,
      "keÃ¤": 5002,
      "Ġtuh": 5003,
      "Ġhum": 5004,
      "intÃ¤Ã¤n": 5005,
      "ĠkvÃ¤ll": 5006,
      "ĠVÃ¤l": 5007,
      "Ġess": 5008,
      "vuoti": 5009,
      "acebook": 5010,
      "Ġ70": 5011,
      "thers": 5012,
      "Ġkukaan": 5013,
      "LA": 5014,
      "ae": 5015,
      "ustelu": 5016,
      "rad": 5017,
      "Ġbook": 5018,
      "vana": 5019,
      "ĠlÃ¤k": 5020,
      "Ġmedic": 5021,
      "ĠDan": 5022,
      "ivaa": 5023,
      "stad": 5024,
      "Ġpieni": 5025,
      "ĠSom": 5026,
      "ĠApril": 5027,
      "ĠMu": 5028,
      "ĠkÃ¤yd": 5029,
      "Ġold": 5030,
      "ĠkÃ¶pa": 5031,
      "uuden": 5032,
      "tetaan": 5033,
      "uit": 5034,
      "ĠkÃ¤nner": 5035,
      "Ġsyks": 5036,
      "Ġvier": 5037,
      "stÃ¶": 5038,
      "amb": 5039,
      "Ġcode": 5040,
      "Ġsaav": 5041,
      "ye": 5042,
      "ctions": 5043,
      "Ġsys": 5044,
      "ĠNa": 5045,
      "Ġcorr": 5046,
      "alk": 5047,
      "ligare": 5048,
      "otti": 5049,
      "tuvat": 5050,
      "alaiset": 5051,
      "Ġparemmin": 5052,
      "uttavat": 5053,
      "Ġammatti": 5054,
      "pit": 5055,
      "unds": 5056,
      "Ġliten": 5057,
      "sequ": 5058,
      "ery": 5059,
      "Ġincluded": 5060,
      "Ġopiskeli": 5061,
      "Ġprofession": 5062,
      "Ġkah": 5063,
      "pon": 5064,
      "Ġmusic": 5065,
      "ĠvÃ¥rt": 5066,
      "Ġgame": 5067,
      "Ġkommentar": 5068,
      "Ġves": 5069,
      "Il": 5070,
      "mÃ¤Ã¤n": 5071,
      "ĠTyÃ¶": 5072,
      "ĠsÃ¤il": 5073,
      "Ġlaad": 5074,
      "unch": 5075,
      "Ġpath": 5076,
      "ĠJanuary": 5077,
      "ĠnÃ¤itÃ¤": 5078,
      "Ġkai": 5079,
      "Ġsuku": 5080,
      "Ġasiat": 5081,
      "Ġyrityks": 5082,
      "Ġsamh": 5083,
      "ĠEsim": 5084,
      "ĠMitÃ¤": 5085,
      "Ã¤nnu": 5086,
      "Ġimpa": 5087,
      "yed": 5088,
      "Ġblivit": 5089,
      "Ġunivers": 5090,
      "Ġihminen": 5091,
      "Ġsuuri": 5092,
      "Ġlive": 5093,
      "IR": 5094,
      "Ġsano": 5095,
      "mon": 5096,
      "ĠEnglish": 5097,
      "ÃĸversÃ¤tt": 5098,
      "Ġ500": 5099,
      "ĠtÃ¤yd": 5100,
      "key": 5101,
      "ĠJuly": 5102,
      "Ġfurther": 5103,
      "UK": 5104,
      "farande": 5105,
      "Ġtuolla": 5106,
      "Ġbegan": 5107,
      "Ġviera": 5108,
      "Ã¤ster": 5109,
      "ĠjÃ¤rjes": 5110,
      "ified": 5111,
      "ĠsÃ¤rsk": 5112,
      "Ġeffect": 5113,
      "oinen": 5114,
      "self": 5115,
      "Ġblood": 5116,
      "Ġmembers": 5117,
      "Ġvilka": 5118,
      "Ġreleased": 5119,
      "Ġsubj": 5120,
      "ĠtÃ¤ytyy": 5121,
      "ĠmieltÃ¤": 5122,
      "64": 5123,
      "Ġsuun": 5124,
      "ĠbÃ¶rjar": 5125,
      "ĠPla": 5126,
      "ĠlÃ¶s": 5127,
      "ĠÃ¤nnu": 5128,
      "ĠOne": 5129,
      "ĠlÃ¤nge": 5130,
      "tis": 5131,
      "ĠfÃ¶re": 5132,
      "ĠgÃ¤rna": 5133,
      "Ġadmin": 5134,
      "anto": 5135,
      "ĠvÃ¤g": 5136,
      "tail": 5137,
      "Ġeconom": 5138,
      "Ġsko": 5139,
      "Ġproject": 5140,
      "ĠOctober": 5141,
      "dd": 5142,
      "asia": 5143,
      "-,": 5144,
      "ĠKÃ¤": 5145,
      "ĠTw": 5146,
      "70": 5147,
      "ogle": 5148,
      "eep": 5149,
      "allinen": 5150,
      "Ġtoo": 5151,
      "Ġsite": 5152,
      "Ġgrupp": 5153,
      "Per": 5154,
      "75": 5155,
      "ĠtrÃ¤ff": 5156,
      "Ġosoit": 5157,
      "Ġseks": 5158,
      "ols": 5159,
      "Ġsepar": 5160,
      "ĠDes": 5161,
      "isko": 5162,
      "ĠanvÃ¤nder": 5163,
      "Ġsouth": 5164,
      "Ġohje": 5165,
      "Olen": 5166,
      "ĠHelsingin": 5167,
      "ĠAir": 5168,
      "Ġsun": 5169,
      "usion": 5170,
      "Translate": 5171,
      "Ġiso": 5172,
      "ĠbestÃ¤m": 5173,
      "Ġpuheen": 5174,
      "ĠkÃ¤Ã¤n": 5175,
      "2012": 5176,
      "koma": 5177,
      "Ġtehnyt": 5178,
      "kla": 5179,
      "Ġworking": 5180,
      "neet": 5181,
      "sfÃ¶r": 5182,
      "Ġ90": 5183,
      "enkiin": 5184,
      "ĠSuomi": 5185,
      "Ġhaving": 5186,
      "Ġparticip": 5187,
      "Ġfunk": 5188,
      "ĠfrÃ¥gor": 5189,
      "ĠStor": 5190,
      "acka": 5191,
      "hÃ¶r": 5192,
      "Ġvuok": 5193,
      "Ġenc": 5194,
      "Ġoriginal": 5195,
      "stÃ¥nd": 5196,
      "hto": 5197,
      "Ġvastu": 5198,
      "ĠMus": 5199,
      "oft": 5200,
      "gramm": 5201,
      "uel": 5202,
      "For": 5203,
      "ept": 5204,
      "Ġcurrent": 5205,
      "ikkÃ¶": 5206,
      "Var": 5207,
      "Ġbid": 5208,
      "Ġtus": 5209,
      "Ã¤lleen": 5210,
      "ĠvÃ¤lttÃ¤m": 5211,
      "Ġfive": 5212,
      "Ġkehitt": 5213,
      "tice": 5214,
      "cing": 5215,
      "LE": 5216,
      "Ġtarp": 5217,
      "udessa": 5218,
      "Ġkaun": 5219,
      "Ġcentury": 5220,
      "ĠHis": 5221,
      "imaan": 5222,
      "orgon": 5223,
      "Ġcomplet": 5224,
      "Ġlent": 5225,
      "100": 5226,
      "Ġcontrib": 5227,
      "Ġsong": 5228,
      "Ġtook": 5229,
      "Ġerityisesti": 5230,
      "Ġbusiness": 5231,
      "ĠkÃ¤ytÃ¤nn": 5232,
      "Ġauthor": 5233,
      "ĠAut": 5234,
      "2018": 5235,
      "ieved": 5236,
      "ehti": 5237,
      "itetty": 5238,
      "Ġcancer": 5239,
      "icro": 5240,
      "Ġdiv": 5241,
      "lobal": 5242,
      "aneet": 5243,
      "Ã¤g": 5244,
      "vak": 5245,
      "sÃ¤kr": 5246,
      "lock": 5247,
      "raft": 5248,
      "udella": 5249,
      "Ġnainen": 5250,
      "Ġtoista": 5251,
      "Ġjonkin": 5252,
      "LÃ¤h": 5253,
      "Ġfield": 5254,
      "olag": 5255,
      "Ġtalous": 5256,
      "Ġplayed": 5257,
      "ĠtehtÃ¤v": 5258,
      "Ġhaft": 5259,
      "Ġ35": 5260,
      "har": 5261,
      "Ma": 5262,
      "ĠJA": 5263,
      "Ġson": 5264,
      "ennes": 5265,
      "umista": 5266,
      "Ġvissa": 5267,
      "Ġauttaa": 5268,
      "ivÃ¥": 5269,
      "Ġabove": 5270,
      "Ġintegr": 5271,
      "ente": 5272,
      "78": 5273,
      "ĠpÃ¶": 5274,
      "idon": 5275,
      "Ġfa": 5276,
      "ude": 5277,
      "estern": 5278,
      "ĠfÃ¶l": 5279,
      "ĠÃ¶n": 5280,
      "Ġpalvelu": 5281,
      "strÃ¶m": 5282,
      "Ġban": 5283,
      "Ġharjoit": 5284,
      "aap": 5285,
      "Ġvidare": 5286,
      "uted": 5287,
      "Ġmaksaa": 5288,
      "fatt": 5289,
      "Ġadvan": 5290,
      "uture": 5291,
      "Ġosta": 5292,
      "ĠrÃ¤": 5293,
      "uti": 5294,
      "ĠItse": 5295,
      "Ġrelations": 5296,
      "isyys": 5297,
      "ĠMo": 5298,
      "Ġsamman": 5299,
      "aps": 5300,
      "grupp": 5301,
      "Ġasiakas": 5302,
      "assi": 5303,
      "chan": 5304,
      "ĠKe": 5305,
      "igure": 5306,
      "Ġaset": 5307,
      "ĠPÃ¤Ã¤": 5308,
      "Ġliittyv": 5309,
      "ector": 5310,
      "Ġmuista": 5311,
      "Ġfaktiskt": 5312,
      "Ġlapsen": 5313,
      "Ġharr": 5314,
      "65": 5315,
      "vaksi": 5316,
      "Ġconstruc": 5317,
      "Ġaiko": 5318,
      "Ã¥tt": 5319,
      "anen": 5320,
      "omin": 5321,
      "hoit": 5322,
      "Ġterveys": 5323,
      "Ġask": 5324,
      "ĠKing": 5325,
      "ught": 5326,
      "estaur": 5327,
      "Ġtahansa": 5328,
      "Ġerbjuder": 5329,
      "Ġohjelm": 5330,
      "Ġsosiaal": 5331,
      "Ã¤nsÃ¤": 5332,
      "Ġfak": 5333,
      "Ġung": 5334,
      "TI": 5335,
      "ĠDecember": 5336,
      "SS": 5337,
      "ĠJu": 5338,
      "Ġcompany": 5339,
      "Ġapproach": 5340,
      "ĠÃ": 5341,
      "arning": 5342,
      "ĠNovember": 5343,
      "Ã¡r": 5344,
      "asing": 5345,
      "icy": 5346,
      "ĠEfter": 5347,
      "ĠtyÃ¶pa": 5348,
      "Ġparas": 5349,
      "tical": 5350,
      "ublic": 5351,
      "kejÃ¤": 5352,
      "Ġvaka": 5353,
      "Med": 5354,
      "Ġviktigt": 5355,
      "andra": 5356,
      "Ġprinc": 5357,
      "čĊĠĠĠĠĠĠĠ": 5358,
      "ours": 5359,
      "Ġ!": 5360,
      "ottam": 5361,
      "Ġkontak": 5362,
      "ĠState": 5363,
      "Ġihmisten": 5364,
      "derna": 5365,
      "Ġeffects": 5366,
      "Ġprosenttia": 5367,
      "ening": 5368,
      "Ġsijaan": 5369,
      "ĠlÃ¤sa": 5370,
      "Ġuts": 5371,
      "Ġ\\": 5372,
      "ĠĠĠĠĠ": 5373,
      "Ġkohte": 5374,
      "Ã¤ttÃ¶m": 5375,
      "âĢľ": 5376,
      "ĠFinland": 5377,
      "Ġohja": 5378,
      "Ġassociated": 5379,
      "Ġjoilla": 5380,
      "Ġtarkoit": 5381,
      "ĠMc": 5382,
      "hak": 5383,
      "ĠmiljÃ¶": 5384,
      "Ġsix": 5385,
      "iate": 5386,
      "Ġfile": 5387,
      "Ġarbete": 5388,
      "ville": 5389,
      "ĠVad": 5390,
      "table": 5391,
      "asa": 5392,
      "ĠsÃ¡": 5393,
      "Ġihmis": 5394,
      "Ã¥k": 5395,
      "Ġmeni": 5396,
      "Ġrange": 5397,
      "Ġran": 5398,
      "lim": 5399,
      "oton": 5400,
      "saj": 5401,
      "okus": 5402,
      "attar": 5403,
      "Ġareas": 5404,
      "Ġextr": 5405,
      "utin": 5406,
      "py": 5407,
      "mÃ¤l": 5408,
      "otell": 5409,
      "vassa": 5410,
      "isilla": 5411,
      "Ġkesken": 5412,
      "Ġgroups": 5413,
      "wer": 5414,
      "lease": 5415,
      "ĠsvÃ¥rt": 5416,
      "ilÃ¤": 5417,
      "Ġtum": 5418,
      "Ġhomm": 5419,
      "Ġyksin": 5420,
      "perÃ¤": 5421,
      "ĠmÃ¶jligt": 5422,
      "eck": 5423,
      "Ġbene": 5424,
      "Ġilmoit": 5425,
      "estig": 5426,
      "onom": 5427,
      "Ġganska": 5428,
      "Ġroll": 5429,
      "Ġolemme": 5430,
      "Ġband": 5431,
      "Ġminua": 5432,
      "Ġkasvat": 5433,
      "Ġcases": 5434,
      "ĠBy": 5435,
      "ĠBro": 5436,
      "Ġmys": 5437,
      "istÃ¶n": 5438,
      "anoma": 5439,
      "ĠtehdÃ¤Ã¤n": 5440,
      "Ġdro": 5441,
      "takt": 5442,
      "Ġmeans": 5443,
      "udesta": 5444,
      "Ġhinta": 5445,
      "ĠvÃ¤hemm": 5446,
      "Ġhowever": 5447,
      "ĠpÃ¤ivÃ¤nÃ¤": 5448,
      "jade": 5449,
      "Ġulkopuol": 5450,
      "Ġjoista": 5451,
      "Ġpopul": 5452,
      "Ġpatient": 5453,
      "bolag": 5454,
      "Ġaiemmin": 5455,
      "post": 5456,
      "ĠDav": 5457,
      "Ġpublished": 5458,
      "tad": 5459,
      "ukk": 5460,
      "level": 5461,
      "uhte": 5462,
      "ĠMag": 5463,
      "alen": 5464,
      "adem": 5465,
      "Ġensin": 5466,
      "Ġlaat": 5467,
      "Ġhandlar": 5468,
      "ĠtyÃ¶sk": 5469,
      "itelm": 5470,
      "Ġdagen": 5471,
      "ĠtÃ¤Ã¤": 5472,
      "ĠvÃ¤hen": 5473,
      "Ġpikku": 5474,
      "Ġpriv": 5475,
      "Ġmenet": 5476,
      "ĠUl": 5477,
      "ĠkansainvÃ¤l": 5478,
      "ottel": 5479,
      "ĠKaikki": 5480,
      "Ġoffer": 5481,
      "uos": 5482,
      "ĠstÃ¶rsta": 5483,
      "text": 5484,
      "Ġpuut": 5485,
      "ĠPark": 5486,
      "Ġmilj": 5487,
      "Ġpian": 5488,
      "print": 5489,
      "Ġproduction": 5490,
      "Ã¼": 5491,
      "Ġ2005": 5492,
      "\")": 5493,
      "umer": 5494,
      "Ġincrease": 5495,
      "aria": 5496,
      "lad": 5497,
      "Ġrakenta": 5498,
      "Ġcompet": 5499,
      "ustaa": 5500,
      "ĠhjÃ¤r": 5501,
      "oston": 5502,
      "ored": 5503,
      "omrÃ¥": 5504,
      "ĠsÃ¤l": 5505,
      "arbete": 5506,
      "Ġthough": 5507,
      "Ġreceived": 5508,
      "pat": 5509,
      "kkÃ¤": 5510,
      "itteli": 5511,
      "ihd": 5512,
      "Ġtown": 5513,
      "Ġfina": 5514,
      "ittain": 5515,
      "bund": 5516,
      "Ġhaasta": 5517,
      "____": 5518,
      "ĠOh": 5519,
      "side": 5520,
      "isuuksia": 5521,
      "ĠRec": 5522,
      "Ġviktig": 5523,
      "iina": 5524,
      "ords": 5525,
      "ivil": 5526,
      "bab": 5527,
      "ĠBritish": 5528,
      "za": 5529,
      "Ġactivity": 5530,
      "Ã¤mme": 5531,
      "Ġsaad": 5532,
      "Ġhor": 5533,
      "Ġcommunity": 5534,
      "Ġlearn": 5535,
      "ikolla": 5536,
      "Ġvall": 5537,
      "Ġnear": 5538,
      "Ġprecis": 5539,
      "ĠSec": 5540,
      "aran": 5541,
      "Ġfocus": 5542,
      "ĠKes": 5543,
      "Ġhalv": 5544,
      "ĠPel": 5545,
      "Jo": 5546,
      "Ġcreat": 5547,
      "Ġcur": 5548,
      "Ġdating": 5549,
      "ĠsÃ¤Ã¤nn": 5550,
      "ĠMet": 5551,
      "Er": 5552,
      "Ġcla": 5553,
      "sb": 5554,
      "Ġhir": 5555,
      "ĠhÃ¤m": 5556,
      "jÃ¤Ã¤": 5557,
      "Ġmeille": 5558,
      "IC": 5559,
      "Ġnumer": 5560,
      "kolog": 5561,
      "irst": 5562,
      "heil": 5563,
      "Ã¶v": 5564,
      "Ġulos": 5565,
      "Ġheld": 5566,
      "ĠyllÃ¤t": 5567,
      "Ġartic": 5568,
      "Ġothers": 5569,
      "organ": 5570,
      "omas": 5571,
      "umisen": 5572,
      "Ġfortfarande": 5573,
      "under": 5574,
      "amen": 5575,
      "TE": 5576,
      "Ġsize": 5577,
      "less": 5578,
      "ĠGÃ¶teborg": 5579,
      "gether": 5580,
      "Ġda": 5581,
      "Ġkey": 5582,
      "almÃ¶": 5583,
      "Ġ2022": 5584,
      "Ġaino": 5585,
      "Ġbuilding": 5586,
      "Ġfoot": 5587,
      "Ġterm": 5588,
      "ĠnÃ¤stan": 5589,
      "ections": 5590,
      "ĠWest": 5591,
      "Ġmaking": 5592,
      "AD": 5593,
      "uper": 5594,
      "Ġincreased": 5595,
      "Ġkau": 5596,
      "Ġviet": 5597,
      "ĠUr": 5598,
      "Ġgott": 5599,
      "Ġmillion": 5600,
      "Ġmonta": 5601,
      "ytym": 5602,
      "ĠKer": 5603,
      "ĠfÃ¶rÃ¤nd": 5604,
      "Ġconsidered": 5605,
      "Ġvilken": 5606,
      "ilja": 5607,
      "Ġinget": 5608,
      "emed": 5609,
      "Ġauto": 5610,
      "čĊĠĠĠĠĠĠĠĠ": 5611,
      "Ġbehov": 5612,
      "Ġpoin": 5613,
      "ging": 5614,
      "Ġforsk": 5615,
      "Ġminim": 5616,
      "Ġresultat": 5617,
      "ynÃ¤": 5618,
      "esus": 5619,
      "ivo": 5620,
      "Ġihmisen": 5621,
      "Ġkahd": 5622,
      "Ã¤ss": 5623,
      "ĠalltsÃ¥": 5624,
      "gger": 5625,
      "ulu": 5626,
      "formance": 5627,
      "Ġpih": 5628,
      "ĠelÃ¤": 5629,
      "isivat": 5630,
      "tained": 5631,
      "bara": 5632,
      "utuu": 5633,
      "ĠTÃ¤ssÃ¤": 5634,
      "Ġjulka": 5635,
      "Ġtavall": 5636,
      "ĠkÃ¶p": 5637,
      "ĠToim": 5638,
      "yndig": 5639,
      "ĠmÃ¥nad": 5640,
      "Ġreported": 5641,
      "ji": 5642,
      "ampi": 5643,
      "ondon": 5644,
      "ĠhÃ¥ller": 5645,
      "ĠPres": 5646,
      "Ġenter": 5647,
      "ampions": 5648,
      "Ġloss": 5649,
      "Ġsamtidigt": 5650,
      "jal": 5651,
      "Ġedusta": 5652,
      "hal": 5653,
      "ĠGre": 5654,
      "Ġkonk": 5655,
      "ĠnÃ¤ra": 5656,
      "Mutta": 5657,
      "kku": 5658,
      "roll": 5659,
      "esis": 5660,
      "yneet": 5661,
      "act": 5662,
      "Ġtapauksessa": 5663,
      "Ã¶p": 5664,
      "Ġlanguage": 5665,
      "Ġsellainen": 5666,
      "Ġkorja": 5667,
      "ĠTÃ¤mÃ¤n": 5668,
      "nat": 5669,
      "Ġkiinnost": 5670,
      "idge": 5671,
      "Ġsuurin": 5672,
      "Ġlocated": 5673,
      "teena": 5674,
      "Ġsvensk": 5675,
      "no": 5676,
      "TÃ¤mÃ¤": 5677,
      "ategor": 5678,
      "Ġute": 5679,
      "evÃ¤t": 5680,
      "ĠMil": 5681,
      "ĠPo": 5682,
      "isaalta": 5683,
      "Ġendast": 5684,
      "janta": 5685,
      "Ġmaj": 5686,
      "Ġrepresent": 5687,
      "ĠCor": 5688,
      "Ġdistrib": 5689,
      "ennÃ¤kÃ¶": 5690,
      "Ġinstall": 5691,
      "ĠkÃ¤nns": 5692,
      "Ġwww": 5693,
      "St": 5694,
      "Ġlower": 5695,
      "amista": 5696,
      "load": 5697,
      "2020": 5698,
      "Ġkahden": 5699,
      "itin": 5700,
      "ihto": 5701,
      "llinen": 5702,
      "ea": 5703,
      "ĠFl": 5704,
      "Ġprint": 5705,
      "ref": 5706,
      "Ġcreate": 5707,
      "Ġrate": 5708,
      "Ġasiaa": 5709,
      "Ġrelated": 5710,
      "Ġtunte": 5711,
      "tering": 5712,
      "Ġvaiheessa": 5713,
      "jelma": 5714,
      "Ġsti": 5715,
      "Ġstad": 5716,
      "ykset": 5717,
      "Sam": 5718,
      "uksena": 5719,
      "MA": 5720,
      "isl": 5721,
      "Ġescort": 5722,
      "2019": 5723,
      "hi": 5724,
      "antaina": 5725,
      "Du": 5726,
      "ĠDÃ¥": 5727,
      "ĠmyÃ¶hemmin": 5728,
      "bra": 5729,
      "cted": 5730,
      "ĠhÃ¥lla": 5731,
      "alaisten": 5732,
      "imatta": 5733,
      "ĠÂ§": 5734,
      "Ġeducation": 5735,
      "Ġdefin": 5736,
      "chen": 5737,
      "kil": 5738,
      "Ġcause": 5739,
      "ites": 5740,
      "Ġkill": 5741,
      "bruary": 5742,
      "Ġsiksi": 5743,
      "42": 5744,
      "istin": 5745,
      "sÃ¤tta": 5746,
      "Ġham": 5747,
      "ĠNÃ¤in": 5748,
      "itÃ¤Ã¤n": 5749,
      "Ġarbeta": 5750,
      "anda": 5751,
      "ĠmyÃ¶tÃ¤": 5752,
      "iku": 5753,
      "innÃ¤": 5754,
      "Ġbuilt": 5755,
      "ography": 5756,
      "reet": 5757,
      "Ġpuhel": 5758,
      "Ġtien": 5759,
      "Ġpotential": 5760,
      "Ġcareer": 5761,
      "ĠTal": 5762,
      "Ġtyd": 5763,
      "ĠJohan": 5764,
      "matta": 5765,
      "43": 5766,
      "idd": 5767,
      "ĠkÃ¤ynn": 5768,
      "ĠnÃ¤sta": 5769,
      "Ġpuhe": 5770,
      "ford": 5771,
      "most": 5772,
      "Ã¤dd": 5773,
      "utua": 5774,
      "Ġpiti": 5775,
      "Ġjak": 5776,
      "Ġdemon": 5777,
      "itat": 5778,
      "uck": 5779,
      "ĠpÃ¥ver": 5780,
      "ris": 5781,
      "Ġtarvitta": 5782,
      "jaksi": 5783,
      "Ġtapp": 5784,
      "Ġjne": 5785,
      "ĠBra": 5786,
      "Ġspr": 5787,
      "Ġkaikkea": 5788,
      "Ġdok": 5789,
      "etun": 5790,
      "ĠtÃ¤nÃ¤": 5791,
      "ĠUt": 5792,
      "Ġrahaa": 5793,
      "Ã¤nner": 5794,
      "Kir": 5795,
      "Ġajo": 5796,
      "Ġlista": 5797,
      "Ġseura": 5798,
      "palvelu": 5799,
      "vinna": 5800,
      "86": 5801,
      "Ġder": 5802,
      "tual": 5803,
      "styr": 5804,
      "faren": 5805,
      "ny": 5806,
      "Ġsenare": 5807,
      "Ġpun": 5808,
      "tÃ¤llet": 5809,
      "toi": 5810,
      "Ġtimm": 5811,
      "Ġmaahan": 5812,
      "fil": 5813,
      "yal": 5814,
      "kset": 5815,
      "kkeen": 5816,
      "onaan": 5817,
      "Ġleast": 5818,
      "Ġskapa": 5819,
      "Ġmars": 5820,
      "ĠEs": 5821,
      "ias": 5822,
      "Ġov": 5823,
      "ĠmÃ¶jlig": 5824,
      "Ġvars": 5825,
      "ured": 5826,
      "ĠbesÃ¶k": 5827,
      "Ġdiscuss": 5828,
      "tava": 5829,
      "41": 5830,
      "stead": 5831,
      "PÃ¥": 5832,
      "aking": 5833,
      "ĠmÃ¶jlighet": 5834,
      "Ġtele": 5835,
      "ĠNord": 5836,
      "Ã¤ntÃ¶": 5837,
      "HL": 5838,
      "cell": 5839,
      "Le": 5840,
      "elen": 5841,
      "oille": 5842,
      "ĠMart": 5843,
      "Ġacross": 5844,
      "Ã¤der": 5845,
      "Ġmiljon": 5846,
      "Ġerror": 5847,
      "acy": 5848,
      "Ġjohd": 5849,
      "ĠvÃ¤rlden": 5850,
      "ĠâĢĺ": 5851,
      "off": 5852,
      "ĠEuroopan": 5853,
      "time": 5854,
      "Nyt": 5855,
      "estÃ¤ll": 5856,
      "Ġast": 5857,
      "ĠgÃ¥nger": 5858,
      "log": 5859,
      "Ġpyy": 5860,
      "itary": 5861,
      "Ġ45": 5862,
      "Ġtry": 5863,
      "lingen": 5864,
      "Ġ;)": 5865,
      "Ġcho": 5866,
      "Ġrakka": 5867,
      "Ġarch": 5868,
      "lings": 5869,
      "onser": 5870,
      "],": 5871,
      "vention": 5872,
      "kem": 5873,
      "gt": 5874,
      "wa": 5875,
      "tivat": 5876,
      "unnunta": 5877,
      "ĠGod": 5878,
      "Ġsamaa": 5879,
      "irl": 5880,
      "ilma": 5881,
      "ĠâĢ¢": 5882,
      "kte": 5883,
      "Ġkring": 5884,
      "syn": 5885,
      "Ġbir": 5886,
      "Ġrapp": 5887,
      "Ġgamla": 5888,
      "Ġbetyd": 5889,
      "ĠnÃ¤kÃ¶": 5890,
      "uneen": 5891,
      "Ġoikeasti": 5892,
      "Ġconditions": 5893,
      "Ġsystems": 5894,
      "ĠÃ¥ret": 5895,
      "ĠjÃ¤Ã¤n": 5896,
      "elmÃ¤": 5897,
      "Val": 5898,
      "Ġhen": 5899,
      "ĠCal": 5900,
      "amat": 5901,
      "ettom": 5902,
      "Ġprot": 5903,
      "frÃ¥g": 5904,
      "ĠjÃ¤r": 5905,
      "ĠyhtÃ¤Ã¤n": 5906,
      "Ġkirjo": 5907,
      "Ġtarjoaa": 5908,
      "Ġegna": 5909,
      "ĠÃ¤ldre": 5910,
      "rÃ¤": 5911,
      "Ġkel": 5912,
      "Ġtunne": 5913,
      "Ġbeslut": 5914,
      "Ġollaan": 5915,
      "ican": 5916,
      "Ġtan": 5917,
      "Ġinit": 5918,
      "Ġexist": 5919,
      "atory": 5920,
      "trol": 5921,
      "Ġviss": 5922,
      "Ġsnabbt": 5923,
      "Ġtemp": 5924,
      "Ġtogether": 5925,
      "Ġsep": 5926,
      "duce": 5927,
      "Ġopetta": 5928,
      "ĠAlla": 5929,
      "Ġkaikkia": 5930,
      "Ġcheck": 5931,
      "veys": 5932,
      "ops": 5933,
      "Ġrequir": 5934,
      "Ġplant": 5935,
      "kossa": 5936,
      "ĠÃ¤Ã¤r": 5937,
      "Ã¶der": 5938,
      "ĠWith": 5939,
      "Ġomina": 5940,
      "Ġlittle": 5941,
      "98": 5942,
      "ĠpÃ¤ivÃ¤Ã¤": 5943,
      "Ġomat": 5944,
      "Ġkone": 5945,
      "empia": 5946,
      "ety": 5947,
      "Ġunders": 5948,
      "ipe": 5949,
      "onsa": 5950,
      "ĠnÃ¤hdÃ¤": 5951,
      "EC": 5952,
      "Ġnamed": 5953,
      "Ġsor": 5954,
      "lÃ¶s": 5955,
      "jas": 5956,
      "Ġrelig": 5957,
      "Ġflesta": 5958,
      "onger": 5959,
      "uoll": 5960,
      "Ġmuutaman": 5961,
      "Ġfrequ": 5962,
      "SI": 5963,
      "Ġcreated": 5964,
      "orit": 5965,
      "kasta": 5966,
      "ĠLin": 5967,
      "Ġbruk": 5968,
      "Ġuseita": 5969,
      "Ġerilaisia": 5970,
      "Ġtips": 5971,
      "ĠItal": 5972,
      "Ġvaihtoehto": 5973,
      "akko": 5974,
      "Ġmember": 5975,
      "proj": 5976,
      "ĠMod": 5977,
      "ĠistÃ¤llet": 5978,
      "ĠRed": 5979,
      "tiden": 5980,
      "mo": 5981,
      "Ġarvo": 5982,
      "Ġminst": 5983,
      "ĠVaikka": 5984,
      "Ġlit": 5985,
      "Ġottel": 5986,
      "tyg": 5987,
      "Ġmitta": 5988,
      "haa": 5989,
      "Ġkronor": 5990,
      "ĠframfÃ¶r": 5991,
      "ĠlÃ¤mp": 5992,
      "Ġintroduc": 5993,
      "eria": 5994,
      "Ġstation": 5995,
      "Ġkatso": 5996,
      "oliit": 5997,
      "ĠWhat": 5998,
      "Ġfyra": 5999,
      "ĠjÃ¤i": 6000,
      "ĠKys": 6001,
      "posed": 6002,
      "beh": 6003,
      "Ã¶ver": 6004,
      "Ġtapahtuu": 6005,
      "2011": 6006,
      "Ġjut": 6007,
      "ĠpitkÃ¤Ã¤n": 6008,
      "ĠhÃ¤ntÃ¤": 6009,
      "ĠfÃ¶rut": 6010,
      "Ġtarkoittaa": 6011,
      "Ġkaikkien": 6012,
      "ukan": 6013,
      "liv": 6014,
      "ĠAnna": 6015,
      "sar": 6016,
      "ĠOnko": 6017,
      "Ġihop": 6018,
      "ready": 6019,
      "ĠvÃ¤rld": 6020,
      "pÃ¤ivÃ¤": 6021,
      "Ġbef": 6022,
      "Con": 6023,
      "iting": 6024,
      "isar": 6025,
      "gu": 6026,
      "ĠFebruary": 6027,
      "Ġeither": 6028,
      "misesta": 6029,
      "ĠvÃ¤lja": 6030,
      "ĠensimmÃ¤inen": 6031,
      "erap": 6032,
      "Ġsista": 6033,
      "Ġporn": 6034,
      "ĠâĢ¦": 6035,
      "isuuteen": 6036,
      "Ġprotein": 6037,
      "Ġkak": 6038,
      "ĠÂ»": 6039,
      "Ġthird": 6040,
      "fo": 6041,
      "valu": 6042,
      "Ġcome": 6043,
      "Ġnever": 6044,
      "ĠyhÃ¤": 6045,
      "ermin": 6046,
      "ĠmikÃ¤Ã¤n": 6047,
      "Ġkansan": 6048,
      "maks": 6049,
      "imi": 6050,
      "Ġaver": 6051,
      "kseni": 6052,
      "ĠIN": 6053,
      "Ġtoki": 6054,
      "ictor": 6055,
      "ĠjÃ¤lleen": 6056,
      "ĠsieltÃ¤": 6057,
      "ĠSol": 6058,
      "skr": 6059,
      "ĠLÃ¤s": 6060,
      "Ġuudelleen": 6061,
      "ĠLap": 6062,
      "jut": 6063,
      "Ġflyt": 6064,
      "ns": 6065,
      "Ġhenne": 6066,
      "Ġquestion": 6067,
      "Ġcertain": 6068,
      "Ġratkaisu": 6069,
      "oten": 6070,
      "Ġton": 6071,
      "Ġben": 6072,
      "bok": 6073,
      "ningarna": 6074,
      "samma": 6075,
      "Ġ2004": 6076,
      "ible": 6077,
      "ĠSim": 6078,
      "Ġfas": 6079,
      "aker": 6080,
      "Ġminulla": 6081,
      "Ġneur": 6082,
      "ectively": 6083,
      "Ġidea": 6084,
      "Ġlearning": 6085,
      "ĠsjÃ¤lva": 6086,
      "Ġkotiin": 6087,
      "jÃ¶r": 6088,
      "All": 6089,
      "Ġtietysti": 6090,
      "rench": 6091,
      "Har": 6092,
      "isuudesta": 6093,
      "Ġvalmista": 6094,
      "Ġpes": 6095,
      "Ġkostnad": 6096,
      "icrosoft": 6097,
      "oney": 6098,
      "ĠgenomfÃ¶r": 6099,
      "ĠrÃ¤k": 6100,
      "nam": 6101,
      "ĠbÃ¶rjade": 6102,
      "Ġkrit": 6103,
      "ittiin": 6104,
      "ĠLondon": 6105,
      "Ġbal": 6106,
      "Ġlaittaa": 6107,
      "ĠfrÃ¤m": 6108,
      "mental": 6109,
      "bes": 6110,
      "Ġvit": 6111,
      "etic": 6112,
      "Ġpen": 6113,
      "Ġshown": 6114,
      "Ġstrong": 6115,
      "Ġtieto": 6116,
      "tÃ¤r": 6117,
      "ryhm": 6118,
      "eration": 6119,
      "Ġnecess": 6120,
      "ĠCounty": 6121,
      "Ġsatt": 6122,
      "ĠvÃ¥rd": 6123,
      "What": 6124,
      "roid": 6125,
      "ikaan": 6126,
      "MitÃ¤": 6127,
      "Ġkamp": 6128,
      "Ġskol": 6129,
      "Ġcomplex": 6130,
      "usp": 6131,
      "cription": 6132,
      "Ġlat": 6133,
      "Ġemplo": 6134,
      "ieve": 6135,
      "Ġinvestig": 6136,
      "artment": 6137,
      "utar": 6138,
      "Ġfeel": 6139,
      "ams": 6140,
      "âĤ¬": 6141,
      "Ġlet": 6142,
      "Ġcentr": 6143,
      "nes": 6144,
      "Ġtack": 6145,
      "Ġytter": 6146,
      "Ġdeveloped": 6147,
      "oiden": 6148,
      "Ġavsl": 6149,
      "Ġresponse": 6150,
      "Ġlapsi": 6151,
      "Ġrepla": 6152,
      "ĠtÃ¤rkeÃ¤Ã¤": 6153,
      "isuudet": 6154,
      "SÃ¥": 6155,
      "tare": 6156,
      "Ġluok": 6157,
      "####": 6158,
      "Ġmis": 6159,
      "lain": 6160,
      "ending": 6161,
      "Ġtel": 6162,
      "ference": 6163,
      "::": 6164,
      "Ġklar": 6165,
      "ĠKon": 6166,
      "cel": 6167,
      "svar": 6168,
      "emin": 6169,
      "Ġtilanne": 6170,
      "KA": 6171,
      "Ġkultur": 6172,
      "Ġaine": 6173,
      "Ġprior": 6174,
      "Ġdescribed": 6175,
      "Ġport": 6176,
      "igen": 6177,
      "usa": 6178,
      "ellen": 6179,
      "Ġyhteen": 6180,
      "ĠâĪ": 6181,
      "fik": 6182,
      "Par": 6183,
      "El": 6184,
      "ĠlÃ¥g": 6185,
      "ledge": 6186,
      "imet": 6187,
      "gra": 6188,
      "Ġinterest": 6189,
      "Ġkapp": 6190,
      "Ġheng": 6191,
      "Ġpast": 6192,
      "ĠOsa": 6193,
      "ilija": 6194,
      "Ġperinte": 6195,
      "ĠinlÃ¤gg": 6196,
      "ĠCr": 6197,
      "xy": 6198,
      "oki": 6199,
      "TV": 6200,
      "issaan": 6201,
      "Ġten": 6202,
      "Ġsain": 6203,
      "Ġyksinkerta": 6204,
      "ĠTu": 6205,
      "Ġalternativ": 6206,
      "Li": 6207,
      "siÃ¤": 6208,
      "Ġviesti": 6209,
      "Ġherk": 6210,
      "Ġhuolimatta": 6211,
      "Ġihme": 6212,
      "ĠympÃ¤ristÃ¶": 6213,
      "bit": 6214,
      "ĠWilliam": 6215,
      "kkaan": 6216,
      "emma": 6217,
      "56": 6218,
      "ipuol": 6219,
      "lete": 6220,
      "Ġmom": 6221,
      "ĠpÃ¤in": 6222,
      "Ġspela": 6223,
      "kuin": 6224,
      "ĠlÃ¤Ã¤": 6225,
      "Ġmielenkiin": 6226,
      "Ġmyyn": 6227,
      "Ġaktiiv": 6228,
      "ĠIS": 6229,
      "top": 6230,
      "Ġtuotta": 6231,
      "Ġach": 6232,
      "Ġskriver": 6233,
      "fig": 6234,
      "Ġtyh": 6235,
      "isÃ¤Ã¤": 6236,
      "Ġsomething": 6237,
      "ython": 6238,
      "kti": 6239,
      "urity": 6240,
      "Ġkaks": 6241,
      "Ġborn": 6242,
      "ynam": 6243,
      "ĠLÃ¤h": 6244,
      "itiiv": 6245,
      "uilla": 6246,
      "von": 6247,
      "itetÃ¤Ã¤n": 6248,
      "ulin": 6249,
      "Ġetc": 6250,
      "Ġsyv": 6251,
      "Ġsidan": 6252,
      "pass": 6253,
      "paikka": 6254,
      "uset": 6255,
      "istaan": 6256,
      "Ġcompared": 6257,
      "Ġkannatta": 6258,
      "ilin": 6259,
      "lat": 6260,
      "tÃ¤vÃ¤sti": 6261,
      "Ġesti": 6262,
      "ttÃ¶m": 6263,
      "esh": 6264,
      "Ġparempi": 6265,
      "Ġdelar": 6266,
      "Ġfantast": 6267,
      "Ġoikeus": 6268,
      "ended": 6269,
      "Ġaiku": 6270,
      "iding": 6271,
      "ius": 6272,
      "Ġfuture": 6273,
      "muka": 6274,
      "gare": 6275,
      "lib": 6276,
      "ĠallmÃ¤n": 6277,
      "Ġcalc": 6278,
      "Ġkohti": 6279,
      "ĠTiet": 6280,
      "ĠtekemÃ¤Ã¤n": 6281,
      "Ġyoung": 6282,
      "cil": 6283,
      "ĠminkÃ¤": 6284,
      "spr": 6285,
      "user": 6286,
      "attle": 6287,
      "Ġnatural": 6288,
      "ministeri": 6289,
      "Komm": 6290,
      "ĠKesk": 6291,
      "ĠQu": 6292,
      "Ġparti": 6293,
      "Ġmiehen": 6294,
      "sr": 6295,
      "ĠVer": 6296,
      "test": 6297,
      "rew": 6298,
      "itation": 6299,
      "ĠInternational": 6300,
      "ĠHigh": 6301,
      "ĠRev": 6302,
      "Ã¡l": 6303,
      "Ġrep": 6304,
      "Ġoleva": 6305,
      "closed": 6306,
      "Ġpull": 6307,
      "Ġmusta": 6308,
      "Ġissues": 6309,
      "Ġtex": 6310,
      "Ġalready": 6311,
      "Ġkirj": 6312,
      "ÃĦÃĦ": 6313,
      "Ġosalta": 6314,
      "Ġarbetar": 6315,
      "Ġpitk": 6316,
      "gÃ¤ng": 6317,
      "rote": 6318,
      "Ġvita": 6319,
      "ustom": 6320,
      "Ġasiasta": 6321,
      "ĠsamhÃ¤ll": 6322,
      "ihan": 6323,
      "Ġkurs": 6324,
      "erande": 6325,
      "nande": 6326,
      "ĠpÃ¤Ã¤see": 6327,
      "Ġpoikke": 6328,
      "Ġant": 6329,
      "Ã¤neet": 6330,
      "umin": 6331,
      "bud": 6332,
      "Ġorigin": 6333,
      "Ġproblems": 6334,
      "Ġhard": 6335,
      "kiel": 6336,
      "type": 6337,
      "Ġsiten": 6338,
      "77": 6339,
      "ĠjÃ¤mfÃ¶r": 6340,
      "Ġarm": 6341,
      "ĠSveriges": 6342,
      "tÃ¤viÃ¤": 6343,
      "If": 6344,
      "ÃĸR": 6345,
      "Ġcame": 6346,
      "doc": 6347,
      "osiaan": 6348,
      "Ġalways": 6349,
      "ano": 6350,
      "Ġindividual": 6351,
      "Ol": 6352,
      "ppan": 6353,
      "Ġnation": 6354,
      "Ġvaar": 6355,
      "Ġverkko": 6356,
      "Ġwebbplats": 6357,
      "CH": 6358,
      "ĠkÃ¤ytetÃ¤Ã¤n": 6359,
      "itty": 6360,
      "atum": 6361,
      "tals": 6362,
      "dÃ¤": 6363,
      "Ġweek": 6364,
      "Ġkustann": 6365,
      "umb": 6366,
      "Ġwhether": 6367,
      "eeksi": 6368,
      "edd": 6369,
      "ulated": 6370,
      "ortun": 6371,
      "simmÃ¤": 6372,
      "Ġconduc": 6373,
      "arvo": 6374,
      "ĠfÃ¶rm": 6375,
      "Ġmonths": 6376,
      "ĠutfÃ¶r": 6377,
      "Ġlate": 6378,
      "Ġollen": 6379,
      "vista": 6380,
      "Ġulkoma": 6381,
      "Ġstudent": 6382,
      "ĠnÃ¤ytt": 6383,
      "Ġring": 6384,
      "Ġupd": 6385,
      "Ġseen": 6386,
      "Ġprincip": 6387,
      "essor": 6388,
      "Ġverksamhet": 6389,
      "Ġtypes": 6390,
      "urnal": 6391,
      "ube": 6392,
      "Ġteke": 6393,
      "lÃ¶": 6394,
      "ĠkÃ¤ydÃ¤": 6395,
      "Ġ300": 6396,
      "ĠTor": 6397,
      "isemmin": 6398,
      "Ġhennes": 6399,
      "ĠIsra": 6400,
      "Ġ**": 6401,
      "gon": 6402,
      "96": 6403,
      "Ġreser": 6404,
      "kam": 6405,
      "IF": 6406,
      "Ġdessutom": 6407,
      "Ġperust": 6408,
      "Ġkeske": 6409,
      "88": 6410,
      "gi": 6411,
      "Ġsympt": 6412,
      "Ġpaikall": 6413,
      "Ġmatk": 6414,
      "ilee": 6415,
      "ĠfÃ¶rÃ¤l": 6416,
      "Ġlyck": 6417,
      "nan": 6418,
      "Res": 6419,
      "enskap": 6420,
      "iation": 6421,
      "Ġvuosi": 6422,
      "ĠLeague": 6423,
      "ches": 6424,
      "xx": 6425,
      "ĠFacebook": 6426,
      "Ġthings": 6427,
      "akoul": 6428,
      "PR": 6429,
      "ĠmennessÃ¤": 6430,
      "Ġspace": 6431,
      "ĠSil": 6432,
      "anger": 6433,
      "ppu": 6434,
      "Ġkis": 6435,
      "Ġsinulla": 6436,
      "Ġcapa": 6437,
      "2010": 6438,
      "Ġnoud": 6439,
      "Ġhelppo": 6440,
      "Ã¶nt": 6441,
      "Ġserved": 6442,
      "Ġnormal": 6443,
      "Ġrequired": 6444,
      "Ġsinua": 6445,
      "Ġclin": 6446,
      "Ġdiffic": 6447,
      "ĠAb": 6448,
      "iini": 6449,
      "Ġadded": 6450,
      "Ġlad": 6451,
      "koko": 6452,
      "alaisen": 6453,
      "Ġperformance": 6454,
      "Ġilme": 6455,
      "Ġaway": 6456,
      "osition": 6457,
      "lingar": 6458,
      "ceed": 6459,
      "Ã¶rer": 6460,
      "Ġfokus": 6461,
      "uku": 6462,
      "Ġcirc": 6463,
      "ĠhyvÃ¤n": 6464,
      "ĠtyttÃ¶": 6465,
      "Ġdemonstr": 6466,
      "Ġrecogn": 6467,
      "sti": 6468,
      "Ġkehitys": 6469,
      "based": 6470,
      "Ġfact": 6471,
      "Ġcourse": 6472,
      "Ġkiinte": 6473,
      "Att": 6474,
      "Ġinflu": 6475,
      "Ġilta": 6476,
      "Ġkontakt": 6477,
      "Ġkulttuur": 6478,
      "ĠlÃ¤htÃ¶": 6479,
      "fatta": 6480,
      "Ġmateria": 6481,
      "Ġbelow": 6482,
      "Ġnamn": 6483,
      "ften": 6484,
      "Ġtodell": 6485,
      "ĠhÃ¤v": 6486,
      "Ġhelst": 6487,
      "aga": 6488,
      "Ġinternet": 6489,
      "Ġkannalta": 6490,
      "Ġgive": 6491,
      "Ġfrien": 6492,
      "Ġerfaren": 6493,
      "mÃ¤rk": 6494,
      "Ġsaadaan": 6495,
      "kuu": 6496,
      "ĠlÃ¤mm": 6497,
      "Ġpul": 6498,
      "ksan": 6499,
      "ĠyrittÃ¤": 6500,
      "Ã¤Ã¤kke": 6501,
      "ators": 6502,
      "Ġrev": 6503,
      "ĠyÃ¶": 6504,
      "spel": 6505,
      "Ġostaa": 6506,
      "sÃ¤lj": 6507,
      "ĠJumalan": 6508,
      "mas": 6509,
      "mia": 6510,
      "uttamaan": 6511,
      "verket": 6512,
      "iella": 6513,
      "Ne": 6514,
      "ĠLind": 6515,
      "ĠKn": 6516,
      "Ġlikely": 6517,
      "))": 6518,
      "ĠAsia": 6519,
      "Ġvalues": 6520,
      "Ġdigital": 6521,
      "Ġsaavat": 6522,
      "Ġoire": 6523,
      "Ġutr": 6524,
      "Ġrajoit": 6525,
      "ĠlÃ¥n": 6526,
      "inoma": 6527,
      "Ġluom": 6528,
      "Ġvanhemp": 6529,
      "ĠriittÃ¤Ã¤": 6530,
      "Vad": 6531,
      "Ġflow": 6532,
      "Ġvaria": 6533,
      "Ġstructure": 6534,
      "naden": 6535,
      "Ġemot": 6536,
      "ĠsisÃ¤Ã¤n": 6537,
      "Å¾": 6538,
      "ĠkÃ¤vi": 6539,
      "kia": 6540,
      "Ġcountries": 6541,
      "ĠHyv": 6542,
      "Ġbegin": 6543,
      "ĠMac": 6544,
      "Ġhaluat": 6545,
      "Ġliikke": 6546,
      "ĠYhdys": 6547,
      "Ġgrowth": 6548,
      "ikkoja": 6549,
      "ype": 6550,
      "Ġtosin": 6551,
      "isimman": 6552,
      "Ġbit": 6553,
      "ĠenkÃ¤": 6554,
      "Ġmechan": 6555,
      ",âĢĿ": 6556,
      "Ġtoiminn": 6557,
      "ioita": 6558,
      "Ġmieleen": 6559,
      "rab": 6560,
      "sv": 6561,
      "ĠFrench": 6562,
      "Upp": 6563,
      "saa": 6564,
      "omme": 6565,
      "Ġassess": 6566,
      "iir": 6567,
      "Ġhapp": 6568,
      "Sa": 6569,
      "HÃ¤r": 6570,
      "Ġclub": 6571,
      "ĠCa": 6572,
      "Ġvaltion": 6573,
      "sak": 6574,
      "ĠvÃ¤hemmÃ¤n": 6575,
      "ei": 6576,
      "Ġoptim": 6577,
      "gas": 6578,
      "ĠEsp": 6579,
      "PA": 6580,
      "ĠfrÃ¥ga": 6581,
      "ĠpÃ¤": 6582,
      "ĠvÃ¤s": 6583,
      "fÃ¤ll": 6584,
      "toja": 6585,
      "Ġkanna": 6586,
      "rect": 6587,
      "Ġala": 6588,
      "ict": 6589,
      "erin": 6590,
      "Ġvalko": 6591,
      "Ġkolle": 6592,
      "ikut": 6593,
      "pecially": 6594,
      "58": 6595,
      "ĠStar": 6596,
      "Ġweb": 6597,
      "ĠlÃ¶ytÃ¤Ã¤": 6598,
      "ytyvÃ¤": 6599,
      "ĠlÃ¤hd": 6600,
      "nitt": 6601,
      "ĠDep": 6602,
      "Ġmielip": 6603,
      "ĠPohjois": 6604,
      "ĠVoit": 6605,
      "ything": 6606,
      "itted": 6607,
      "Ġovan": 6608,
      "Ġmiljoonaa": 6609,
      "Ġmyy": 6610,
      "Ġhuone": 6611,
      "Ġmal": 6612,
      "Ġ]": 6613,
      "Ġlyhy": 6614,
      "Ġinstr": 6615,
      "alli": 6616,
      "Ġkiva": 6617,
      "Ġfys": 6618,
      "Ġkokonaan": 6619,
      "Ġmem": 6620,
      "ĠKyllÃ¤": 6621,
      "kua": 6622,
      "ĠlÃ¤mpÃ¶": 6623,
      "uster": 6624,
      "Ġmaal": 6625,
      "Ġyksil": 6626,
      "Ad": 6627,
      "Ġblack": 6628,
      "Ġalussa": 6629,
      "etoim": 6630,
      "iment": 6631,
      "Ġservices": 6632,
      "emat": 6633,
      "ĠtodennÃ¤kÃ¶": 6634,
      "Ġprodukter": 6635,
      "Ġaccording": 6636,
      "Ġvaikea": 6637,
      "Ġrelease": 6638,
      "Ġmeet": 6639,
      "Ġjord": 6640,
      "inter": 6641,
      "Ġrelationship": 6642,
      "ĠvÃ¤hintÃ¤Ã¤n": 6643,
      "Ġmenest": 6644,
      "isistÃ¤": 6645,
      "Ġville": 6646,
      "ĊĊ": 6647,
      "Ġjatkaa": 6648,
      "Ġpopular": 6649,
      "entligen": 6650,
      "este": 6651,
      "iction": 6652,
      "Ġusually": 6653,
      "Ġtarkoitus": 6654,
      "Ġalueella": 6655,
      "lund": 6656,
      "rom": 6657,
      "IA": 6658,
      "Ġgas": 6659,
      "Ġklart": 6660,
      "Ġsource": 6661,
      "ĠIm": 6662,
      "Ġsum": 6663,
      "ĠRad": 6664,
      "ĠSex": 6665,
      "Ġmarket": 6666,
      "ekka": 6667,
      "97": 6668,
      "'m": 6669,
      "Ġdone": 6670,
      "Ġsj": 6671,
      "Ġtapaht": 6672,
      "ĠkÃ¤ytÃ¶ssÃ¤": 6673,
      "Ġpelk": 6674,
      "ĠEuropean": 6675,
      "57": 6676,
      "Ġ2003": 6677,
      "Ġsuhteen": 6678,
      "ohja": 6679,
      "OV": 6680,
      "Ġhyp": 6681,
      "kott": 6682,
      "jam": 6683,
      "Ġvecka": 6684,
      "Ġkaupunki": 6685,
      "entaa": 6686,
      "imassage": 6687,
      "Ġero": 6688,
      "Ġonce": 6689,
      "eln": 6690,
      "aki": 6691,
      "kier": 6692,
      "Ġkilomet": 6693,
      "Hur": 6694,
      "elling": 6695,
      "Ġstory": 6696,
      "Ġtosiaan": 6697,
      "Ġjum": 6698,
      "Ġbolag": 6699,
      "Ã¶kul": 6700,
      "blog": 6701,
      "Ã¤ttar": 6702,
      "Ġerot": 6703,
      "ĠMuut": 6704,
      "Ġkertoi": 6705,
      "Or": 6706,
      "ĠmielestÃ¤ni": 6707,
      "ĠUse": 6708,
      "Ġkod": 6709,
      "ampionship": 6710,
      "ĠMy": 6711,
      "urss": 6712,
      "Ġexperience": 6713,
      "Kiitos": 6714,
      "Ġextrem": 6715,
      "ĠsÃ¥g": 6716,
      "There": 6717,
      "pendent": 6718,
      "laista": 6719,
      "Ġupon": 6720,
      "ĠbÃ¶rjan": 6721,
      "Ġdied": 6722,
      "Ã¶in": 6723,
      "Ġenda": 6724,
      "Ġevalu": 6725,
      "Ġrent": 6726,
      "pahtum": 6727,
      "Ġtelev": 6728,
      "Ġstarted": 6729,
      "Ġwords": 6730,
      "Ġott": 6731,
      "Ġasiantunti": 6732,
      "Ġfann": 6733,
      "Ġtoteut": 6734,
      "Ġjoko": 6735,
      "Ġchem": 6736,
      "Ġalkohol": 6737,
      "tning": 6738,
      "Ġsurface": 6739,
      "Ġaction": 6740,
      "Ġleh": 6741,
      "sÃ¤tter": 6742,
      "Ġmassa": 6743,
      "etting": 6744,
      "ettÃ¤vÃ¤": 6745,
      "bly": 6746,
      "Ġbosta": 6747,
      "Ġengag": 6748,
      "tjÃ¤n": 6749,
      "ĠTai": 6750,
      "Ġconcentr": 6751,
      "astic": 6752,
      "Ġ}": 6753,
      "ccording": 6754,
      "Ġlarg": 6755,
      "Ġsold": 6756,
      "ĠNet": 6757,
      "Ġhalf": 6758,
      "miseksi": 6759,
      "Ġdetermin": 6760,
      "Ġperformed": 6761,
      "2021": 6762,
      "Ġtech": 6763,
      "lik": 6764,
      "ults": 6765,
      "Ġsequ": 6766,
      "IG": 6767,
      "ĠVo": 6768,
      "Ġlum": 6769,
      "Ġturva": 6770,
      "Ġpoist": 6771,
      "ĠvarfÃ¶r": 6772,
      "ĠÃ¶vr": 6773,
      "kalla": 6774,
      "Ġpakko": 6775,
      "ffer": 6776,
      "!!!": 6777,
      "Ġsille": 6778,
      "LL": 6779,
      "Ġminuter": 6780,
      "Ġassist": 6781,
      "ĠtÃ¤v": 6782,
      "Ġravint": 6783,
      "lied": 6784,
      "Ġtaken": 6785,
      "ĠtÃ¤nne": 6786,
      "ials": 6787,
      "Ã¶itÃ¤": 6788,
      "valta": 6789,
      "Ġrool": 6790,
      "Ġjonkun": 6791,
      "ĠsisÃ¤llÃ¤": 6792,
      "emang": 6793,
      "atso": 6794,
      "Ġnaut": 6795,
      "Ġlopulta": 6796,
      "Ġkiinnosta": 6797,
      "ottavasti": 6798,
      "Ġtoimitus": 6799,
      "Ġlom": 6800,
      "aring": 6801,
      "ĠVil": 6802,
      "Ġvux": 6803,
      "Ġupe": 6804,
      "Ġpolitical": 6805,
      "ĠyhteyttÃ¤": 6806,
      "Ġdejtingsaj": 6807,
      "Ġtills": 6808,
      "Ġrestaur": 6809,
      "ĠsisÃ¤ltÃ¤Ã¤": 6810,
      "Ġindividu": 6811,
      "Ġmuutama": 6812,
      "enna": 6813,
      "Ġevents": 6814,
      "ĠIr": 6815,
      "imate": 6816,
      "ĠlÃ¥ngt": 6817,
      "Ġkad": 6818,
      "Ġ00": 6819,
      "Ã¤nnande": 6820,
      "ĠjÃ¤nn": 6821,
      "Ġinj": 6822,
      "ĠInter": 6823,
      "ĠSM": 6824,
      "Ġvalmi": 6825,
      "Ġtup": 6826,
      "Ġreger": 6827,
      "ĠgÃ¥tt": 6828,
      "ĠslÃ¤": 6829,
      "edia": 6830,
      "Ġhaus": 6831,
      "ago": 6832,
      "Ġtit": 6833,
      "ĠrÃ¥d": 6834,
      "grad": 6835,
      "Ġfarm": 6836,
      "Ġkuvia": 6837,
      "Ġaverage": 6838,
      "boll": 6839,
      "ĠEngland": 6840,
      "Ġfruk": 6841,
      "Ġestablished": 6842,
      "ground": 6843,
      "Ġmukaisesti": 6844,
      "klart": 6845,
      "ĠanvÃ¤nds": 6846,
      "Ã³": 6847,
      "pin": 6848,
      "Ġkuvat": 6849,
      "stitute": 6850,
      "ĠBu": 6851,
      "Ġclaim": 6852,
      "Ġfactors": 6853,
      "Ġoccur": 6854,
      "utions": 6855,
      "Ġrout": 6856,
      "Ġjuhl": 6857,
      "Ġhuomatta": 6858,
      "ishing": 6859,
      "Ġrekomm": 6860,
      "Ġkumm": 6861,
      "Ġflo": 6862,
      "ĠhjÃ¤lpa": 6863,
      "ĠhyviÃ¤": 6864,
      "anti": 6865,
      "How": 6866,
      "Ġainakaan": 6867,
      "Ġdest": 6868,
      "iki": 6869,
      "Ġnuo": 6870,
      "Ġhyd": 6871,
      "Ġitsell": 6872,
      "Ġaddress": 6873,
      "lainen": 6874,
      "ĠPat": 6875,
      "Ġtrots": 6876,
      "Ġvanligt": 6877,
      "Ġborde": 6878,
      "anss": 6879,
      "Ġkoulutus": 6880,
      "ymÃ¤Ã¤n": 6881,
      "oende": 6882,
      "Ġsure": 6883,
      "ĠbÃ¶rja": 6884,
      "ĠneljÃ¤": 6885,
      "66": 6886,
      "Ġkotona": 6887,
      "Ġregl": 6888,
      "elma": 6889,
      "haan": 6890,
      "jalta": 6891,
      "Ġdrug": 6892,
      "itetaan": 6893,
      "Ġengine": 6894,
      "ĠtyÃ¶skent": 6895,
      "essÃ¤Ã¤n": 6896,
      "Ġmahdollisuus": 6897,
      "ĠJoka": 6898,
      "Ġansi": 6899,
      "Ġsida": 6900,
      "aler": 6901,
      "ĠKoko": 6902,
      "Ġproduced": 6903,
      "kis": 6904,
      "ilun": 6905,
      "elevat": 6906,
      "Ġgoing": 6907,
      "Ġseurak": 6908,
      "Mar": 6909,
      "Ġshows": 6910,
      "ĠTul": 6911,
      "istuksen": 6912,
      "ollinen": 6913,
      "gor": 6914,
      "ulun": 6915,
      "Ġkonst": 6916,
      "Ġquality": 6917,
      "Ġparam": 6918,
      "person": 6919,
      "Ġtulev": 6920,
      "Ġlask": 6921,
      "onto": 6922,
      "Pa": 6923,
      "Ġolemaan": 6924,
      "Ġespecially": 6925,
      "ĠlÃ¤hellÃ¤": 6926,
      "pped": 6927,
      "ĠMich": 6928,
      "Ġhoppas": 6929,
      "htiÃ¶n": 6930,
      "ĠSvenska": 6931,
      "Ġmahdollisimman": 6932,
      "tures": 6933,
      "wor": 6934,
      "Ġodot": 6935,
      "Ġtaa": 6936,
      "Ġfungerar": 6937,
      "Ġuti": 6938,
      "ĠpÃ¤Ã¤llÃ¤": 6939,
      "ĠAnders": 6940,
      "anuari": 6941,
      "Ġkorva": 6942,
      "gift": 6943,
      "59": 6944,
      "ĠvÃ¤k": 6945,
      "lam": 6946,
      "Ġarvost": 6947,
      "jud": 6948,
      "ĠBlack": 6949,
      "ĠensimmÃ¤isen": 6950,
      "ĠVid": 6951,
      "pital": 6952,
      "ĠKarl": 6953,
      "Ġhake": 6954,
      "Lue": 6955,
      "Ġkauan": 6956,
      "Ġhouse": 6957,
      "Ġtjejer": 6958,
      "joukku": 6959,
      "Ġjaks": 6960,
      "ĠhyÃ¶dyn": 6961,
      "kot": 6962,
      "Ġtietok": 6963,
      "ĠKans": 6964,
      "iselta": 6965,
      "onent": 6966,
      "ĠIts": 6967,
      "Ġwritten": 6968,
      "Ġmuse": 6969,
      "Ġmuutt": 6970,
      "Ġjun": 6971,
      "Ġkilpa": 6972,
      "Ġbehavior": 6973,
      "Ġhaa": 6974,
      "Ġns": 6975,
      "ico": 6976,
      "Ph": 6977,
      "attuna": 6978,
      "ammin": 6979,
      "dem": 6980,
      "Ġenvironment": 6981,
      "Ġrather": 6982,
      "ĠanstÃ¤ll": 6983,
      "ey": 6984,
      "ĠlisÃ¤Ã¤n": 6985,
      "istics": 6986,
      "Ġinkl": 6987,
      "Ġsnart": 6988,
      "Ġaug": 6989,
      "Ġkohtaan": 6990,
      "ng": 6991,
      "ĠMik": 6992,
      "Ġcontent": 6993,
      "Ġmedan": 6994,
      "Ġsag": 6995,
      "Ġcentral": 6996,
      "[@": 6997,
      "Ġkeskitt": 6998,
      "ĠsÃ¶k": 6999,
      "pak": 7000,
      "Ġtulevat": 7001,
      "Ġneeds": 7002,
      "ĠnÃ¤rm": 7003,
      "Ġheart": 7004,
      "Ġaud": 7005,
      "vil": 7006,
      "Ġprovided": 7007,
      "ĠsÃ¤n": 7008,
      "ĠDist": 7009,
      "|>": 7010,
      "orge": 7011,
      "kaupp": 7012,
      "rec": 7013,
      "Ġskriva": 7014,
      "ĠeteenpÃ¤in": 7015,
      "ĠBel": 7016,
      "ĠgÃ¥ngen": 7017,
      "annot": 7018,
      "ager": 7019,
      "estival": 7020,
      "asino": 7021,
      "Ġtarvitaan": 7022,
      "ĠST": 7023,
      "do": 7024,
      "OD": 7025,
      "Ġnimi": 7026,
      "Ġluot": 7027,
      "Ġveta": 7028,
      "muut": 7029,
      "Ġverkar": 7030,
      "Ġwhy": 7031,
      "Ġtimmar": 7032,
      "Ġbig": 7033,
      "kol": 7034,
      "Ġlapset": 7035,
      "ĠtyÃ¶tÃ¤": 7036,
      "Ġlivet": 7037,
      "Ġindust": 7038,
      "innat": 7039,
      "Ġregard": 7040,
      "oden": 7041,
      "CR": 7042,
      "Ġtavar": 7043,
      "Ġmanagement": 7044,
      "Ġhuomioon": 7045,
      "Ġskad": 7046,
      "Ġparan": 7047,
      "Ġbenef": 7048,
      "ernas": 7049,
      "Ġalkaen": 7050,
      "ĠSome": 7051,
      "Ġibland": 7052,
      "Ġantal": 7053,
      "Ġbeskriv": 7054,
      "ĠHouse": 7055,
      "ittelee": 7056,
      "<|": 7057,
      "Ġpage": 7058,
      "Ġword": 7059,
      "Ġblock": 7060,
      "Ġconsist": 7061,
      "Ġcross": 7062,
      "vation": 7063,
      "Ġpoints": 7064,
      "ĠHam": 7065,
      "Ġtraining": 7066,
      "Ġkvinna": 7067,
      "avy": 7068,
      "avs": 7069,
      "Ã¤tÃ¶n": 7070,
      "iala": 7071,
      "ĠitsensÃ¤": 7072,
      "ĠChar": 7073,
      "Ġcost": 7074,
      "data": 7075,
      "ĠlÃ¤gga": 7076,
      "ication": 7077,
      "Ġchall": 7078,
      "Ġfeatures": 7079,
      "Ġloppuun": 7080,
      "tually": 7081,
      "Ġregistr": 7082,
      "Ġluv": 7083,
      "Ġdispla": 7084,
      "Ġdiscover": 7085,
      "ĠsisÃ¤ll": 7086,
      "Ġkulut": 7087,
      "ytys": 7088,
      "ÃŃ": 7089,
      "ucle": 7090,
      "ĠMad": 7091,
      "Ġhuipp": 7092,
      "ĠGroup": 7093,
      "Ġexpress": 7094,
      "Ġjuni": 7095,
      "Ġattack": 7096,
      "utr": 7097,
      "Ġtuul": 7098,
      "Ġpassar": 7099,
      "Ġstatus": 7100,
      "Ġblogg": 7101,
      "Ġnar": 7102,
      "Ġexpression": 7103,
      "Ġkeep": 7104,
      "piir": 7105,
      "ency": 7106,
      "Ġmicro": 7107,
      "yhtiÃ¶": 7108,
      "ĠTÃ¤": 7109,
      "ĠMiten": 7110,
      "Ã¶nster": 7111,
      "OH": 7112,
      "ĠfÃ¶rl": 7113,
      "ĠkrÃ¤v": 7114,
      "ĠColle": 7115,
      "Ġclose": 7116,
      "Ġ(\"": 7117,
      "ĠAmerica": 7118,
      "Ġradio": 7119,
      "san": 7120,
      "Ġprobab": 7121,
      "uston": 7122,
      "Ġros": 7123,
      "Ġkg": 7124,
      "Ġ1990": 7125,
      "viin": 7126,
      "ĠTha": 7127,
      "Ġmethods": 7128,
      "Ġkna": 7129,
      "vÃ¥rd": 7130,
      "aken": 7131,
      "ception": 7132,
      "Ġdecre": 7133,
      "ohjelm": 7134,
      "Ġmelkein": 7135,
      "Ġtuota": 7136,
      "innut": 7137,
      "ĠTuo": 7138,
      "Ġeffic": 7139,
      "ittÃ¤nyt": 7140,
      "Ġkerta": 7141,
      "ĠChristi": 7142,
      "Ġconta": 7143,
      "Ġinga": 7144,
      "Ġjossain": 7145,
      "avan": 7146,
      "Ġveckan": 7147,
      "lass": 7148,
      "Ġsqu": 7149,
      "Pr": 7150,
      "ĠCup": 7151,
      "tivÃ¤t": 7152,
      "ĠViime": 7153,
      "Ġsuunnitel": 7154,
      "Ġmg": 7155,
      "etut": 7156,
      "ĠsÃ¤rskilt": 7157,
      "IP": 7158,
      "Ġinstead": 7159,
      "ĠVol": 7160,
      "Ġluonnon": 7161,
      "enkilÃ¶": 7162,
      "ĠTrans": 7163,
      "Ġkopp": 7164,
      "estÃ¤Ã¤n": 7165,
      "ekn": 7166,
      "ĠutanfÃ¶r": 7167,
      "ĠfÃ¶rslag": 7168,
      "ĠtrÃ¤d": 7169,
      "fte": 7170,
      "iton": 7171,
      "teeksi": 7172,
      "ĠÃĦr": 7173,
      "Sen": 7174,
      "Man": 7175,
      "try": 7176,
      "Ã¤rr": 7177,
      "Ġasp": 7178,
      "eds": 7179,
      "uch": 7180,
      "aine": 7181,
      "ĠHelsinki": 7182,
      "Ġsch": 7183,
      "okas": 7184,
      "Ġcasino": 7185,
      "Ġainoastaan": 7186,
      "Ġtuntia": 7187,
      "Ġmiljoner": 7188,
      "juv": 7189,
      "etus": 7190,
      "Ġlek": 7191,
      "Ġsurv": 7192,
      "RA": 7193,
      "luvun": 7194,
      "Ġaccep": 7195,
      "Ġinspir": 7196,
      "ĠsyystÃ¤": 7197,
      "Ġattem": 7198,
      "kunta": 7199,
      "ĠHealth": 7200,
      "Ġheller": 7201,
      "ĠsyytÃ¤": 7202,
      "ĠpÃ¤Ã¤ssÃ¤": 7203,
      "Ġleat": 7204,
      "Ġabsol": 7205,
      "Âł": 7206,
      "orin": 7207,
      "ĠCenter": 7208,
      "ĠRiver": 7209,
      "Ġkommentarer": 7210,
      "Ġevidence": 7211,
      "erkki": 7212,
      "Ġtilaa": 7213,
      "ulo": 7214,
      "amisen": 7215,
      "Ġselke": 7216,
      "YS": 7217,
      "akti": 7218,
      "Ġtakana": 7219,
      "Ġskick": 7220,
      "iforn": 7221,
      "lade": 7222,
      "Ġ2002": 7223,
      "ĠTam": 7224,
      "df": 7225,
      "ettuja": 7226,
      "Ġlau": 7227,
      "Ġtha": 7228,
      "udun": 7229,
      "saker": 7230,
      "Ġsynt": 7231,
      "Ġhol": 7232,
      "ffe": 7233,
      "Ġkuka": 7234,
      "Ġrelativ": 7235,
      "Ġwhite": 7236,
      "Ġmultiple": 7237,
      "Ġflyg": 7238,
      "Ġamer": 7239,
      "year": 7240,
      "alvel": 7241,
      "elv": 7242,
      "Ġskolan": 7243,
      "Ġdate": 7244,
      "Ġstates": 7245,
      "ĠrÃ¶": 7246,
      "ĠIndia": 7247,
      "kojen": 7248,
      "Ġegentligen": 7249,
      "Ġsellaista": 7250,
      "Ġsumm": 7251,
      "Ġactivities": 7252,
      "Ġimpact": 7253,
      "Ġhallituksen": 7254,
      "box": 7255,
      "Ã¤stÃ¤Ã¤n": 7256,
      "ammat": 7257,
      "Ġauton": 7258,
      "Ġjuur": 7259,
      "Ġrekister": 7260,
      "Ġalusta": 7261,
      "Ġremov": 7262,
      "Ġkart": 7263,
      "Niin": 7264,
      "Ġwent": 7265,
      "ĠSl": 7266,
      "esc": 7267,
      "Ġtechni": 7268,
      "andid": 7269,
      "tage": 7270,
      "ĠbÃ¤st": 7271,
      "Ġvaatim": 7272,
      "ĠsprÃ¥": 7273,
      "ĠfÃ¶rbÃ¤tt": 7274,
      "astr": 7275,
      "76": 7276,
      "ĠsÃ¶n": 7277,
      "Ġmakes": 7278,
      "Ġtechnology": 7279,
      "tit": 7280,
      "annan": 7281,
      "ĠWindows": 7282,
      "joittel": 7283,
      "Ġhoid": 7284,
      "ĠhjÃ¤lper": 7285,
      "Ġshowed": 7286,
      "Ġapua": 7287,
      "ĠYhte": 7288,
      "ĠAlex": 7289,
      "ykseen": 7290,
      "Ġserver": 7291,
      "Ġtax": 7292,
      "Ġsovel": 7293,
      "ĠfÃ¶rdel": 7294,
      "joitus": 7295,
      "ĠÄį": 7296,
      "ĠPet": 7297,
      "ĠÃ¥rs": 7298,
      "Ġaiheuttaa": 7299,
      "Ġgym": 7300,
      "Ġmielenkiinto": 7301,
      "pes": 7302,
      "Ġfactor": 7303,
      "brary": 7304,
      "CC": 7305,
      "samhet": 7306,
      "UM": 7307,
      "tek": 7308,
      "Ġknowledge": 7309,
      "bas": 7310,
      "Ġheter": 7311,
      "Ġjournal": 7312,
      "Ġtank": 7313,
      "ellyt": 7314,
      "iff": 7315,
      "(\"": 7316,
      "iso": 7317,
      "ĠDavid": 7318,
      "ĠSitten": 7319,
      "Ha": 7320,
      "Ġviikolla": 7321,
      "85": 7322,
      "agen": 7323,
      "Ġjanuari": 7324,
      "Ġkohdalla": 7325,
      "Ġmoni": 7326,
      "itets": 7327,
      "Ġbrukar": 7328,
      "udd": 7329,
      "Ġytterligare": 7330,
      "Ġvanha": 7331,
      "Ġdry": 7332,
      "Efter": 7333,
      "uum": 7334,
      "java": 7335,
      "ĠDo": 7336,
      "Ġhev": 7337,
      "ĠtÃ¤nka": 7338,
      "Ġbonus": 7339,
      "vuus": 7340,
      "oach": 7341,
      "rott": 7342,
      "Ġprevent": 7343,
      "empÃ¤Ã¤": 7344,
      "mann": 7345,
      "Ġwid": 7346,
      "aana": 7347,
      "2009": 7348,
      "elia": 7349,
      "ledning": 7350,
      "medel": 7351,
      "ocal": 7352,
      "ĠhÃ¤nelle": 7353,
      "inder": 7354,
      "bers": 7355,
      "Ġenti": 7356,
      "Ġhed": 7357,
      "Ġnetwork": 7358,
      "Ġannoun": 7359,
      "Ġkuvaa": 7360,
      "Ter": 7361,
      "Ġsid": 7362,
      "sing": 7363,
      "Ġprop": 7364,
      "iot": 7365,
      "enut": 7366,
      "Ġsaap": 7367,
      "uvia": 7368,
      "Ġcontra": 7369,
      "skolan": 7370,
      "Ġlukea": 7371,
      "Ġwriting": 7372,
      "ikseen": 7373,
      "Ġjuoks": 7374,
      "uth": 7375,
      "Ġfinans": 7376,
      "ideo": 7377,
      "ĠVill": 7378,
      "tall": 7379,
      "Ġongelma": 7380,
      "ives": 7381,
      "ĠtÃ¶r": 7382,
      "ĠVÃ¤": 7383,
      "Ġsopii": 7384,
      "jup": 7385,
      "jelman": 7386,
      "ĠlÃ¤hteÃ¤": 7387,
      "elt": 7388,
      "Ġmonet": 7389,
      "ĠThat": 7390,
      "tojen": 7391,
      "Ġpredic": 7392,
      "Ġnimen": 7393,
      "Ġphysical": 7394,
      "Ġdoll": 7395,
      "bruk": 7396,
      "Ġvoin": 7397,
      "kinta": 7398,
      "ĠnÃ¤kyy": 7399,
      "utuminen": 7400,
      "terar": 7401,
      "ĠIndian": 7402,
      "olen": 7403,
      "itaa": 7404,
      "ĠtyytyvÃ¤": 7405,
      "Ġoo": 7406,
      "ĠelÃ¤mÃ¤": 7407,
      "Ġjotenkin": 7408,
      "Ġfanns": 7409,
      "sav": 7410,
      "Ġ2001": 7411,
      "Ġmusik": 7412,
      "Ã¤kÃ¤Ã¤n": 7413,
      "Ġtutkimus": 7414,
      "Ġtoiminnan": 7415,
      "Ġbecom": 7416,
      "Ġbank": 7417,
      "Ġvaatii": 7418,
      "Ġ32": 7419,
      "Ġtaloud": 7420,
      "Ġutveckling": 7421,
      "Ġvoinut": 7422,
      "Ġtitta": 7423,
      "dags": 7424,
      "acks": 7425,
      "ĠTil": 7426,
      "oder": 7427,
      "ummet": 7428,
      "Ġtausta": 7429,
      "Ġkello": 7430,
      "ektr": 7431,
      "ĠlÃ¶n": 7432,
      "ollisuus": 7433,
      "oitu": 7434,
      "itch": 7435,
      "imÃ¤Ã¤rÃ¤": 7436,
      "ĠFred": 7437,
      "Ġprivat": 7438,
      "Ġcop": 7439,
      "ĠSystem": 7440,
      "Ġmoved": 7441,
      "Ġsymbol": 7442,
      "KyllÃ¤": 7443,
      "Ġeskort": 7444,
      "Ġliving": 7445,
      "53": 7446,
      "Ġobserved": 7447,
      "Ġtests": 7448,
      "ĠDem": 7449,
      "ership": 7450,
      "Ã¶cker": 7451,
      "ĠaffÃ¤r": 7452,
      "Ġglobal": 7453,
      "Ġmilla": 7454,
      "Ġterms": 7455,
      "Ġpienen": 7456,
      "Ġvirhe": 7457,
      "pris": 7458,
      "ĠSiinÃ¤": 7459,
      "emia": 7460,
      "Ġinterac": 7461,
      "ĠMM": 7462,
      "Ġtarget": 7463,
      "entary": 7464,
      "Ġsed": 7465,
      "Ġsay": 7466,
      "tary": 7467,
      "tial": 7468,
      "Ġharv": 7469,
      "rac": 7470,
      "ighet": 7471,
      "otte": 7472,
      "ĠinnehÃ¥ller": 7473,
      "enkÃ¤Ã¤n": 7474,
      "Ġkunnan": 7475,
      "Ġelever": 7476,
      "Ġinvolved": 7477,
      "ĠToiv": 7478,
      "Ġhallitus": 7479,
      "ellut": 7480,
      "asten": 7481,
      "Ġuser": 7482,
      "dex": 7483,
      "ĠPÃ¤iv": 7484,
      "estaan": 7485,
      "Ġclos": 7486,
      "iassa": 7487,
      "Ã¤ngd": 7488,
      "ĠKiin": 7489,
      "Ġgillar": 7490,
      "mÃ¤r": 7491,
      "Ġvisa": 7492,
      "Br": 7493,
      "Ġapril": 7494,
      "ĠymmÃ¤rtÃ¤Ã¤": 7495,
      "ajan": 7496,
      "Ġpositive": 7497,
      "Ã¸": 7498,
      "Ġroad": 7499,
      "Ġfastig": 7500,
      "ĠmÃ¶r": 7501,
      "jetta": 7502,
      "Ġvaihd": 7503,
      "born": 7504,
      "ĠÃ¶lj": 7505,
      "Ġveckor": 7506,
      "ĠIhan": 7507,
      "ountain": 7508,
      "stant": 7509,
      "Ġmedical": 7510,
      "Ġpattern": 7511,
      "ejÃ¤": 7512,
      "Ġenough": 7513,
      "ĠLo": 7514,
      "ĠKal": 7515,
      "========": 7516,
      "otten": 7517,
      "Ġsamaan": 7518,
      "jul": 7519,
      "NÃ¤": 7520,
      "domar": 7521,
      "laisia": 7522,
      "eten": 7523,
      "Ġbeg": 7524,
      "And": 7525,
      "intoja": 7526,
      "Ġsoft": 7527,
      "Ġlug": 7528,
      "ques": 7529,
      "ukkaan": 7530,
      "Ġtrev": 7531,
      "Ġlie": 7532,
      "ĠsiltÃ¤": 7533,
      "istÃ¤Ã¤n": 7534,
      "Ġperusta": 7535,
      "uov": 7536,
      "Ġpractice": 7537,
      "vist": 7538,
      "eende": 7539,
      "kommen": 7540,
      "Ġljus": 7541,
      "Ġjokainen": 7542,
      "Ġhems": 7543,
      "uotsin": 7544,
      "Ġquod": 7545,
      "name": 7546,
      "Ġcolle": 7547,
      "uld": 7548,
      "ĠChrist": 7549,
      "ĠCollege": 7550,
      "can": 7551,
      "olin": 7552,
      "Ġprimary": 7553,
      "Ġdou": 7554,
      "Ġkysymys": 7555,
      "joja": 7556,
      "grund": 7557,
      "Ġlength": 7558,
      "ĠSitÃ¤": 7559,
      "Ġeuron": 7560,
      "Ġtull": 7561,
      "JA": 7562,
      "ert": 7563,
      "Ġ36": 7564,
      "ilda": 7565,
      "Ġutbildning": 7566,
      "Ġena": 7567,
      "aves": 7568,
      "Ġrock": 7569,
      "onic": 7570,
      "siv": 7571,
      "gÃ¥rd": 7572,
      "ratis": 7573,
      "pers": 7574,
      "ense": 7575,
      "Ġslag": 7576,
      "Ġkyr": 7577,
      "Ġharm": 7578,
      "Ġratkais": 7579,
      "mak": 7580,
      "Ġpet": 7581,
      "Ġexec": 7582,
      "imaa": 7583,
      "Ġsitter": 7584,
      "Ġproducts": 7585,
      "Ġvisu": 7586,
      "Ġbur": 7587,
      "yvÃ¤s": 7588,
      "Ġtitle": 7589,
      "ĠPre": 7590,
      "Ġtot": 7591,
      "Ġ400": 7592,
      "Ġphot": 7593,
      "Ġsays": 7594,
      "itella": 7595,
      "ĠkÃ¤nna": 7596,
      "umis": 7597,
      "Ġhenk": 7598,
      "arnas": 7599,
      "Ġgames": 7600,
      "Ġpyst": 7601,
      "Ġainoa": 7602,
      "ĠnÃ¤kÃ¶kul": 7603,
      "ĠselvÃ¤sti": 7604,
      "samt": 7605,
      "ĠdÃ¶": 7606,
      "Ġviik": 7607,
      "arth": 7608,
      "ĠInte": 7609,
      "uments": 7610,
      "ĠOs": 7611,
      "Ġround": 7612,
      "Ġrunsa": 7613,
      "ĠGoogle": 7614,
      "eht": 7615,
      "Ġtask": 7616,
      "emman": 7617,
      "ĠâĨ": 7618,
      "ĠKul": 7619,
      "Ġket": 7620,
      "Ġarticle": 7621,
      "ĠVÃ¤r": 7622,
      "Ġsaakka": 7623,
      "ĠedessÃ¤": 7624,
      "Ġseptember": 7625,
      "Ġtim": 7626,
      "pros": 7627,
      "urinko": 7628,
      "Ġtoday": 7629,
      "Ġtoimintaa": 7630,
      "Ġfootball": 7631,
      "Ġbrain": 7632,
      "ampere": 7633,
      "Ġimage": 7634,
      "masta": 7635,
      "Ġkerra": 7636,
      "BC": 7637,
      "EST": 7638,
      "Ġinternational": 7639,
      "ĠkÃ¤ytt": 7640,
      "Ã¶jd": 7641,
      "ĠlÃ¤gen": 7642,
      "Ġoktober": 7643,
      ".-": 7644,
      "ify": 7645,
      "Ġpoika": 7646,
      "ĠnÃ¤istÃ¤": 7647,
      "Ġnews": 7648,
      "Ett": 7649,
      "idÃ¤t": 7650,
      "like": 7651,
      "Ġverr": 7652,
      "skÃ¤Ã¤n": 7653,
      "Ġclear": 7654,
      "Ġarran": 7655,
      "Ġraska": 7656,
      "ĠÃ¥tgÃ¤r": 7657,
      "Ġhier": 7658,
      "Ġveh": 7659,
      "Under": 7660,
      "otes": 7661,
      "kien": 7662,
      "alys": 7663,
      "Ġsignificantly": 7664,
      "kall": 7665,
      "etaget": 7666,
      "Ġdags": 7667,
      "mis": 7668,
      "Ġtom": 7669,
      "Ġbuss": 7670,
      "Ġfather": 7671,
      "Ġfeed": 7672,
      "Ġparts": 7673,
      "Ġdog": 7674,
      "Ġwhole": 7675,
      "html": 7676,
      "Ġtagit": 7677,
      "ĠsÃ¤s": 7678,
      "ĠelÃ¤mÃ¤Ã¤": 7679,
      "ĠCD": 7680,
      "inan": 7681,
      "ikkaan": 7682,
      "Ġvarandra": 7683,
      "allista": 7684,
      "tein": 7685,
      "Ġkasvaa": 7686,
      "Ġlabor": 7687,
      "ĠrÃ¥": 7688,
      "Ġnaiset": 7689,
      "ĠEhkÃ¤": 7690,
      "uoka": 7691,
      "ĠRoman": 7692,
      "ĠvÃ¤lttÃ¤mÃ¤ttÃ¤": 7693,
      "Ġincludes": 7694,
      "ordin": 7695,
      "ĠOf": 7696,
      "Ġscen": 7697,
      "Ġchurch": 7698,
      "kÃ¶ping": 7699,
      "ansen": 7700,
      "Ġnetti": 7701,
      "tended": 7702,
      "Ġkiit": 7703,
      "Ġtoimen": 7704,
      "ĠPaul": 7705,
      "ashing": 7706,
      "Ġomaan": 7707,
      "Ġreally": 7708,
      "ympÃ¤r": 7709,
      "ontent": 7710,
      "Ġnaisten": 7711,
      "ĠInn": 7712,
      ":)": 7713,
      "ĠEle": 7714,
      "ĠJon": 7715,
      "Ġbio": 7716,
      "arbeta": 7717,
      "ikir": 7718,
      "iellt": 7719,
      "aling": 7720,
      "Ġkip": 7721,
      "Ġhaaste": 7722,
      "onut": 7723,
      "ĠÃ¤iti": 7724,
      "inns": 7725,
      "ringar": 7726,
      "Si": 7727,
      "ĠAssoci": 7728,
      "igan": 7729,
      "Is": 7730,
      "Ġterveyden": 7731,
      "Ġinform": 7732,
      "Ġreve": 7733,
      "Ġamb": 7734,
      "Ġneeded": 7735,
      "ĠRak": 7736,
      "ĠtillgÃ¤ng": 7737,
      "comp": 7738,
      "aled": 7739,
      "Ġmaxim": 7740,
      "Ġfol": 7741,
      "uaal": 7742,
      "%)": 7743,
      "ferens": 7744,
      "Ġoikea": 7745,
      "Ġweight": 7746,
      "fÃ¶rande": 7747,
      "Ġigenom": 7748,
      "Ġsaisi": 7749,
      "54": 7750,
      "cement": 7751,
      "ottu": 7752,
      "Ġthai": 7753,
      "Ġcannot": 7754,
      "Ġunion": 7755,
      "Ġtee": 7756,
      "uoto": 7757,
      "arbon": 7758,
      "ĠpidÃ¤": 7759,
      "roks": 7760,
      "ĠhÃ¤nder": 7761,
      "Ġpressure": 7762,
      "Ġpuolella": 7763,
      "istetaan": 7764,
      "Ġstim": 7765,
      "NING": 7766,
      "tryck": 7767,
      "Ġrecomm": 7768,
      "Ġulkon": 7769,
      "Ġdl": 7770,
      "Ġground": 7771,
      "Ġkaupunk": 7772,
      "Ġtrue": 7773,
      "Ġbred": 7774,
      "Ġrank": 7775,
      "ĠÃ¤m": 7776,
      "Ġviikonlopp": 7777,
      "entti": 7778,
      "rÃ¤n": 7779,
      "ĠPit": 7780,
      "vit": 7781,
      "89": 7782,
      "Ġtamm": 7783,
      "ÃĦR": 7784,
      "ĠkyseessÃ¤": 7785,
      "ustan": 7786,
      "wood": 7787,
      "ĠMore": 7788,
      "stance": 7789,
      "ĠEnerg": 7790,
      "Ġcommand": 7791,
      "yder": 7792,
      "Ġregular": 7793,
      "kkia": 7794,
      "burg": 7795,
      "Ġ150": 7796,
      "Ġtransport": 7797,
      "Ġskin": 7798,
      "ael": 7799,
      "yvÃ¤skyl": 7800,
      "Ġvalmis": 7801,
      "elemaan": 7802,
      "Ġkommit": 7803,
      "Ġdi": 7804,
      "kunn": 7805,
      "ĠPeter": 7806,
      "Ġtoisin": 7807,
      "ĠjÃ¤ttÃ¤Ã¤": 7808,
      "ĠSocial": 7809,
      "ĠylÃ¶s": 7810,
      "Ġtred": 7811,
      "riÃ¤": 7812,
      "head": 7813,
      "odes": 7814,
      "Ġvarsinkin": 7815,
      "Ġmonipuol": 7816,
      "Ġtoimitta": 7817,
      "Ġkunder": 7818,
      "Ġtotta": 7819,
      "Sk": 7820,
      "52": 7821,
      "Ġsall": 7822,
      "Ġuppf": 7823,
      "ĠPan": 7824,
      "Ġantib": 7825,
      "Ġsyr": 7826,
      "uella": 7827,
      "Ġamount": 7828,
      "Ġmoott": 7829,
      "Ġniihin": 7830,
      "Ġpositiiv": 7831,
      "pping": 7832,
      "ĠbÃ¥da": 7833,
      "Ġliikaa": 7834,
      "Ġdesigned": 7835,
      "itions": 7836,
      "Ġrakennus": 7837,
      "ĠPir": 7838,
      "amman": 7839,
      "Ġkirjoittaa": 7840,
      "Ġinternation": 7841,
      "ĠtÃ¤h": 7842,
      "ĠlÃ¤hinnÃ¤": 7843,
      "Ġfollowed": 7844,
      "Ġsaatav": 7845,
      "Ġvalita": 7846,
      "ĠHi": 7847,
      "ria": 7848,
      "ĠnykyÃ¤Ã¤n": 7849,
      "ranch": 7850,
      "-)": 7851,
      "fully": 7852,
      "Ġtutki": 7853,
      "osph": 7854,
      "grammet": 7855,
      "ĠyhteensÃ¤": 7856,
      "Ġtoiseen": 7857,
      "tÃ¤vissÃ¤": 7858,
      "Ġemer": 7859,
      "ĠyrittÃ¤Ã¤": 7860,
      "umat": 7861,
      "Ġasiassa": 7862,
      "ĠMinÃ¤": 7863,
      "uvaa": 7864,
      "ĠKat": 7865,
      "Ġworked": 7866,
      "Ed": 7867,
      "ĠChurch": 7868,
      "Ġnovember": 7869,
      "Ġmix": 7870,
      "Ġreason": 7871,
      "ws": 7872,
      "ĠMalmÃ¶": 7873,
      "lit": 7874,
      "oksi": 7875,
      "Ġjud": 7876,
      "87": 7877,
      "nd": 7878,
      "Ġalas": 7879,
      "ĠfÃ¶rstÃ¥": 7880,
      "Ser": 7881,
      "Ġthought": 7882,
      "ĠhenkilÃ¶kohta": 7883,
      "teeseen": 7884,
      "ĠChina": 7885,
      "Ġsituation": 7886,
      ".[": 7887,
      "Ġmotor": 7888,
      "arit": 7889,
      "Ġvaikutta": 7890,
      "ĠAsi": 7891,
      "essutom": 7892,
      "Ġlip": 7893,
      "TO": 7894,
      "okrat": 7895,
      "Ġeffective": 7896,
      "lient": 7897,
      "Ġhot": 7898,
      "Ġanaly": 7899,
      "zed": 7900,
      "Ġpir": 7901,
      "Ġ09": 7902,
      "ains": 7903,
      "Onko": 7904,
      "Ġhistoria": 7905,
      "ĠjÃ¤lj": 7906,
      "VA": 7907,
      "Ġhost": 7908,
      "Ġsaf": 7909,
      "Ġalmost": 7910,
      "51": 7911,
      "Ġindividuals": 7912,
      "Ġinstitu": 7913,
      "Ġalthough": 7914,
      "intÃ¤": 7915,
      "jista": 7916,
      "ikas": 7917,
      "issi": 7918,
      "Ã¥ra": 7919,
      "ologi": 7920,
      "teessa": 7921,
      "ĠjÃ¤rke": 7922,
      "Ġtoimia": 7923,
      "ellÃ¤Ã¤n": 7924,
      "ourn": 7925,
      "Ġbase": 7926,
      "usive": 7927,
      "iteter": 7928,
      "unen": 7929,
      "Ġkertoa": 7930,
      "Ġblod": 7931,
      "ensive": 7932,
      "Ġic": 7933,
      "ĠEsimerkiksi": 7934,
      "Ġkirjoitta": 7935,
      "Ġfire": 7936,
      "eja": 7937,
      "hÃ¤": 7938,
      "illÃ¤Ã¤n": 7939,
      "iota": 7940,
      "ores": 7941,
      "Ġspelar": 7942,
      "ĠnÃ¤m": 7943,
      "Ġdecember": 7944,
      "istry": 7945,
      "ĠJames": 7946,
      "ĠmÃ¤r": 7947,
      "Ġkuvan": 7948,
      "Ġilmoitta": 7949,
      "iences": 7950,
      "sik": 7951,
      "aska": 7952,
      "ohta": 7953,
      "Ġvirus": 7954,
      "Ġsala": 7955,
      "tekn": 7956,
      "ram": 7957,
      "ĠnÃ¤kem": 7958,
      "Ġongelmia": 7959,
      "pre": 7960,
      "Ġplants": 7961,
      "gal": 7962,
      "Ġcaused": 7963,
      "gren": 7964,
      "Ġunga": 7965,
      "iteten": 7966,
      "Ġreach": 7967,
      "ĠsisÃ¤ltÃ¶": 7968,
      "Ġoon": 7969,
      "utu": 7970,
      "Ġkunnossa": 7971,
      "ĠÃ¤id": 7972,
      "polit": 7973,
      "ĠÃ¡": 7974,
      "Ġota": 7975,
      "blad": 7976,
      "Ġtemperature": 7977,
      "ĠUnion": 7978,
      "Ġjoukkue": 7979,
      "ĠIT": 7980,
      "Ġlack": 7981,
      "Ã¤lt": 7982,
      "Ny": 7983,
      "Ġpall": 7984,
      "uktur": 7985,
      "Ġlot": 7986,
      "Ġkuukauden": 7987,
      "Ġcit": 7988,
      "Ġmach": 7989,
      "jÃ¶l": 7990,
      "ĠEast": 7991,
      "Ġliikk": 7992,
      "Ġsection": 7993,
      "Ġmahd": 7994,
      "Ġfat": 7995,
      "ĠBor": 7996,
      "Ġartikel": 7997,
      "produc": 7998,
      "ĠfÃ¤rg": 7999,
      "ĠInternet": 8000,
      "Ã¤ksi": 8001,
      "Ġthroughout": 8002,
      "Ġpubl": 8003,
      "tto": 8004,
      "ĠResearch": 8005,
      "Ġsimple": 8006,
      "base": 8007,
      "ios": 8008,
      "Ġindustr": 8009,
      "ĠChan": 8010,
      "kta": 8011,
      "ĠGra": 8012,
      "Ġpuolue": 8013,
      "Ġrob": 8014,
      "Ġvillage": 8015,
      "Ġfamilj": 8016,
      "Ġstu": 8017,
      "ĠLou": 8018,
      "ĠlÃ¤ra": 8019,
      "ĠelÃ¤Ã¤": 8020,
      "llerg": 8021,
      "ĠBen": 8022,
      "ettuna": 8023,
      "izing": 8024,
      "Ġlaus": 8025,
      "INEN": 8026,
      "tives": 8027,
      "cm": 8028,
      "Ġemme": 8029,
      "ĠelÃ¤mÃ¤Ã¤n": 8030,
      "ecting": 8031,
      "Ġmonen": 8032,
      "Ġyet": 8033,
      "bruari": 8034,
      "ece": 8035,
      "ĠWhile": 8036,
      "Ġsomm": 8037,
      "Ġpaitsi": 8038,
      "Ġprovides": 8039,
      "Ġviikkoa": 8040,
      "ĠnÃ¤iden": 8041,
      "ĠlÃ¤htee": 8042,
      "inyt": 8043,
      "ĠMel": 8044,
      "Ġyrityksen": 8045,
      "ohje": 8046,
      "ĠLÃ¤": 8047,
      "ikkun": 8048,
      "67": 8049,
      "Ġcolor": 8050,
      "yhdist": 8051,
      "drar": 8052,
      "onia": 8053,
      "Ġperheen": 8054,
      "Ġincreasing": 8055,
      "Jul": 8056,
      "mail": 8057,
      "Ġitself": 8058,
      "Ġpuna": 8059,
      "ellow": 8060,
      "ĠhÃ¤net": 8061,
      "ĠtjÃ¤nster": 8062,
      "Ġq": 8063,
      "ĠsÃ¤Ã¤n": 8064,
      "Ġprepar": 8065,
      "Ġseko": 8066,
      "Ġgemen": 8067,
      "cies": 8068,
      "llikkÃ¶": 8069,
      "Ġrecent": 8070,
      "vÃ¤g": 8071,
      "Ġactive": 8072,
      "ĠsÃ¤tta": 8073,
      "ÃĦN": 8074,
      "Ġwrote": 8075,
      "utunut": 8076,
      "Ġelement": 8077,
      "Ġrights": 8078,
      "Ġtukea": 8079,
      "Ihan": 8080,
      "Ġbakom": 8081,
      "Ġihana": 8082,
      "itetta": 8083,
      "itos": 8084,
      "Ġomia": 8085,
      "Ġkunto": 8086,
      "Ġroh": 8087,
      "ukko": 8088,
      "ĠDuring": 8089,
      "Ġmamma": 8090,
      "Ġvink": 8091,
      "Ġjatkuvasti": 8092,
      "ĠCam": 8093,
      "gency": 8094,
      "oster": 8095,
      "ĠkrÃ¤": 8096,
      "tai": 8097,
      "Ġmoment": 8098,
      "TÃ¤ssÃ¤": 8099,
      "aries": 8100,
      "Och": 8101,
      "ĠHand": 8102,
      "ĠCour": 8103,
      "Ġautomat": 8104,
      "Ġquick": 8105,
      "Ġba": 8106,
      "Ġalueen": 8107,
      "api": 8108,
      "ĠvettÃ¤": 8109,
      "Ġmilitary": 8110,
      "Ġcomplete": 8111,
      "Ġvakuut": 8112,
      "cast": 8113,
      "vuotias": 8114,
      "ammal": 8115,
      "hteen": 8116,
      "uration": 8117,
      "Ġtunnin": 8118,
      "Ġsymptoms": 8119,
      "ĠkÃ¤ynyt": 8120,
      "ĠelÃ¤in": 8121,
      "ĠskÃ¤r": 8122,
      "Ġkropp": 8123,
      "ĠJan": 8124,
      "Ġilla": 8125,
      "Ġverta": 8126,
      "vÃ¤Ã¤": 8127,
      "ĠTÃ¤llÃ¤": 8128,
      "loud": 8129,
      "onym": 8130,
      "Ġpacka": 8131,
      "Ġej": 8132,
      "Ġkri": 8133,
      "After": 8134,
      "pitÃ¤": 8135,
      "ĠFirst": 8136,
      "produk": 8137,
      "Ġtakaa": 8138,
      "eella": 8139,
      "ĠmÃ¥nader": 8140,
      "istration": 8141,
      "ĠThan": 8142,
      "packa": 8143,
      "Ġadop": 8144,
      "Ġcolla": 8145,
      "Ġutom": 8146,
      "Ġaiheutta": 8147,
      "Ġmeddel": 8148,
      "When": 8149,
      "ilan": 8150,
      "Ġnormaal": 8151,
      "Ġuni": 8152,
      "udu": 8153,
      "ĠsÃ¤kert": 8154,
      "Ġfra": 8155,
      "Ġerinoma": 8156,
      "Ġadditional": 8157,
      "Ġsommar": 8158,
      "Ġdirector": 8159,
      "Ġlove": 8160,
      "Ġtilan": 8161,
      "Ġcustom": 8162,
      "ply": 8163,
      "DE": 8164,
      "elua": 8165,
      "Ġtiedon": 8166,
      "atus": 8167,
      "ynnÃ¤": 8168,
      "Ġteen": 8169,
      "Ġprofessional": 8170,
      "ĠProj": 8171,
      "Ġlost": 8172,
      "Ġtietenkin": 8173,
      "Ġilmest": 8174,
      "Ġperjanta": 8175,
      "Ġscience": 8176,
      "ami": 8177,
      "Ġdjur": 8178,
      "Ġnaisen": 8179,
      "ĠvÃ¤ljer": 8180,
      "ĠingÃ¥r": 8181,
      "ĠKok": 8182,
      "ĠnÃ¤tet": 8183,
      "Ġmanu": 8184,
      "ĠtÃ¤nker": 8185,
      "Ġomasta": 8186,
      "ĠDiv": 8187,
      "Ġvacc": 8188,
      "Ġestim": 8189,
      "uloa": 8190,
      "pace": 8191,
      "Ġvarma": 8192,
      "program": 8193,
      "pÃ¥": 8194,
      "osuhte": 8195,
      "pm": 8196,
      "uhan": 8197,
      "essage": 8198,
      "cts": 8199,
      "Ġjatko": 8200,
      "ocks": 8201,
      "Ġkasva": 8202,
      "Ġcard": 8203,
      "amalla": 8204,
      "hell": 8205,
      "ĠDon": 8206,
      "ĠfÃ¶ljande": 8207,
      "Ġident": 8208,
      "Gen": 8209,
      "Ġhyr": 8210,
      "Ġsagt": 8211,
      "stÃ¤nd": 8212,
      "Ġdeg": 8213,
      "Ġsolution": 8214,
      "uoden": 8215,
      "ĠtehtÃ¤vÃ¤": 8216,
      "bildning": 8217,
      "ĠEtelÃ¤": 8218,
      "Ġgene": 8219,
      "Ġlilla": 8220,
      "Ġpuheenjohtaja": 8221,
      "isyyd": 8222,
      "vey": 8223,
      "Ġrekommender": 8224,
      "used": 8225,
      "Ġasioista": 8226,
      "ehÃ¥ll": 8227,
      "Ġthus": 8228,
      "betes": 8229,
      "Ġkirjan": 8230,
      "atform": 8231,
      "ĠÃ¥ren": 8232,
      "Ġauki": 8233,
      "yyt": 8234,
      "Ġvaale": 8235,
      "ĠkestÃ¤Ã¤": 8236,
      "Ġability": 8237,
      "ĠMaria": 8238,
      "Ġamp": 8239,
      "ĠAP": 8240,
      "eskus": 8241,
      "Ġcenter": 8242,
      "alo": 8243,
      "Gr": 8244,
      "Ġcook": 8245,
      "Ġvalv": 8246,
      "ĠvÃ¤gen": 8247,
      "Ġkrav": 8248,
      "Ġcorrect": 8249,
      "ĠtÃ¶itÃ¤": 8250,
      "ĠChe": 8251,
      "ĠFrom": 8252,
      "Lu": 8253,
      "skola": 8254,
      "Ġkannata": 8255,
      "Ġmuuttaa": 8256,
      "ellista": 8257,
      "HE": 8258,
      "Ġparty": 8259,
      "ĠjÃ¤rjestelm": 8260,
      "Ġluki": 8261,
      "ĠDNA": 8262,
      "ention": 8263,
      "Ġpiste": 8264,
      "Ġinvester": 8265,
      "Ġstage": 8266,
      "Ġdigita": 8267,
      "ĠSpan": 8268,
      "Ku": 8269,
      "Ġsuuntaan": 8270,
      "ĠRaam": 8271,
      "Ġlonger": 8272,
      "Ġkoron": 8273,
      "Ġodottaa": 8274,
      "ĠHotel": 8275,
      "Eur": 8276,
      "Ġacid": 8277,
      "Ġfi": 8278,
      "ĠTod": 8279,
      "ĠKl": 8280,
      "Ġclinical": 8281,
      "ĠSuper": 8282,
      "ĠDenna": 8283,
      "onin": 8284,
      "Ġ1980": 8285,
      "ĠhÃ¶gre": 8286,
      "field": 8287,
      "Ġsuomen": 8288,
      "emot": 8289,
      "ĠHÃ¤nen": 8290,
      "Ġlaaj": 8291,
      "ĠMor": 8292,
      "ĠlÃ¤hti": 8293,
      "Ġhours": 8294,
      "Ġlup": 8295,
      "Ġsunnunta": 8296,
      "Ġmilloin": 8297,
      "utetaan": 8298,
      "ĠRi": 8299,
      "ĠfÃ¶rsÃ¶k": 8300,
      "Ġtol": 8301,
      "Ġrats": 8302,
      "eena": 8303,
      "ĠRich": 8304,
      "aal": 8305,
      "Ġkontroll": 8306,
      "Ġquestions": 8307,
      "Ġles": 8308,
      "EG": 8309,
      "hÃ¶n": 8310,
      "Ġkiitos": 8311,
      "ĠSav": 8312,
      "ĠympÃ¤ri": 8313,
      "utul": 8314,
      "uonna": 8315,
      "uuh": 8316,
      "elska": 8317,
      "ĠPhil": 8318,
      "Ġnecessary": 8319,
      "Ġprosess": 8320,
      "Ġviol": 8321,
      "Ġsound": 8322,
      "tejÃ¤": 8323,
      "igned": 8324,
      "ĠmyÃ¶skÃ¤Ã¤n": 8325,
      "itis": 8326,
      "ashington": 8327,
      "ĠberÃ¤ttar": 8328,
      "Ġspring": 8329,
      "Ġeffektiv": 8330,
      "Ġpoliitt": 8331,
      "Ġkunnes": 8332,
      "MS": 8333,
      "Ġkirjoitti": 8334,
      "ĠPresident": 8335,
      "Ġang": 8336,
      "Ġjulkais": 8337,
      "Ġleading": 8338,
      "Ġkomb": 8339,
      "olor": 8340,
      "Ġtaj": 8341,
      "aily": 8342,
      "Ã¤meen": 8343,
      "Ġjostain": 8344,
      "pill": 8345,
      "Ġconcern": 8346,
      "Ġsaatta": 8347,
      "Ġpill": 8348,
      "Ġposta": 8349,
      "talous": 8350,
      "ograf": 8351,
      "Ġtaking": 8352,
      "Ġavoim": 8353,
      "Ġilmi": 8354,
      "Till": 8355,
      "ĠMaa": 8356,
      "Et": 8357,
      "93": 8358,
      "penden": 8359,
      "rup": 8360,
      "ĠtyÃ¶ttÃ¶m": 8361,
      "68": 8362,
      "osc": 8363,
      "Ġagre": 8364,
      "ĠAp": 8365,
      "drag": 8366,
      "ulate": 8367,
      "Ġlandet": 8368,
      "Ġluov": 8369,
      "Ġym": 8370,
      "Ġtherap": 8371,
      "Tur": 8372,
      "Ġsker": 8373,
      "Ġalkan": 8374,
      "Ġvarsina": 8375,
      "emalla": 8376,
      "ĠfÃ¶d": 8377,
      "Ġoppim": 8378,
      "Sh": 8379,
      "Ġkonser": 8380,
      "ĠhyvÃ¤t": 8381,
      "Ġmodels": 8382,
      "Ġrecep": 8383,
      "Ġavoid": 8384,
      "ĠMr": 8385,
      "Ġbroad": 8386,
      "Ġmuistaa": 8387,
      "Ġske": 8388,
      "esp": 8389,
      "ĠkÃ¤ytet": 8390,
      "ifornia": 8391,
      "fattar": 8392,
      "ĠMeillÃ¤": 8393,
      "Ġuppgifter": 8394,
      "Ġartikk": 8395,
      "uttanut": 8396,
      "ĠSuomeen": 8397,
      "Ġ75": 8398,
      "Ġthaimassage": 8399,
      "Ġkiire": 8400,
      "Ġrac": 8401,
      "pose": 8402,
      "inger": 8403,
      "ĠGreen": 8404,
      "Ġessa": 8405,
      "Ġkop": 8406,
      "Ġnaap": 8407,
      "Ġmulla": 8408,
      "Ġpercent": 8409,
      "ĠHol": 8410,
      "avsett": 8411,
      "Ġsla": 8412,
      "Op": 8413,
      "utveckl": 8414,
      "Ġcut": 8415,
      "Ġintell": 8416,
      "ĠsvÃ¥r": 8417,
      "ĠAustralia": 8418,
      "istossa": 8419,
      "Ġtehokka": 8420,
      "Ġgirl": 8421,
      "Ġresources": 8422,
      "Ġjur": 8423,
      "Ġpoik": 8424,
      "Ġtotu": 8425,
      "Ġiniti": 8426,
      "enee": 8427,
      "Ġfer": 8428,
      "Ġmuoto": 8429,
      "Ġstyle": 8430,
      "You": 8431,
      "fors": 8432,
      "bled": 8433,
      "umme": 8434,
      "Ġculture": 8435,
      "ĠÃĦven": 8436,
      "Ġwa": 8437,
      "cher": 8438,
      "tics": 8439,
      "Ġsteg": 8440,
      "ification": 8441,
      "Ġ37": 8442,
      "ovis": 8443,
      "ĠBi": 8444,
      "Ġsad": 8445,
      "esto": 8446,
      "Sc": 8447,
      "94": 8448,
      "ĠEg": 8449,
      "Ġ33": 8450,
      "Mon": 8451,
      "ĠMiel": 8452,
      "Ġvuodessa": 8453,
      "eeks": 8454,
      "?\"": 8455,
      "Ġkuiv": 8456,
      "ĠalkuperÃ¤": 8457,
      "Ġways": 8458,
      "Ġjokin": 8459,
      "ĠfÃ¶rra": 8460,
      "iner": 8461,
      "Ġsivu": 8462,
      "Ġtrack": 8463,
      "Ġdistrict": 8464,
      "ĠIhm": 8465,
      "teh": 8466,
      "Ġpuolestaan": 8467,
      "Ġnovel": 8468,
      "iant": 8469,
      "ipÃ¤Ã¤": 8470,
      "SP": 8471,
      "Ã¤nÃ¤Ã¤n": 8472,
      "Ġnight": 8473,
      "ĠheitÃ¤": 8474,
      "Ġreturned": 8475,
      "inkin": 8476,
      "KÃ¤": 8477,
      "Ġasenn": 8478,
      "yminen": 8479,
      "Ġnuorten": 8480,
      "joille": 8481,
      "Ġtransfer": 8482,
      "Ġactually": 8483,
      "ĠvÃ¤rde": 8484,
      "Ġanswer": 8485,
      "ĠtÃ¤rkeÃ¤": 8486,
      "Ġuses": 8487,
      "ukÃ¤": 8488,
      "Ġpeh": 8489,
      "ĠCap": 8490,
      "Ġforce": 8491,
      "ĠPost": 8492,
      "ĠUkra": 8493,
      "mil": 8494,
      "Ġnature": 8495,
      "Ġrefle": 8496,
      "Ġkeski": 8497,
      "otter": 8498,
      "ĠÃ¤k": 8499,
      "tress": 8500,
      "rÃ¤t": 8501,
      "Ġcontinued": 8502,
      "asons": 8503,
      "Ġvuosina": 8504,
      "gatan": 8505,
      "Ġreduce": 8506,
      "ĠCarl": 8507,
      "mus": 8508,
      "yvÃ¤n": 8509,
      "ĠBal": 8510,
      "Ġkeks": 8511,
      "ĠtillgÃ¥ng": 8512,
      "Ġcivil": 8513,
      "Ġimplement": 8514,
      "alien": 8515,
      "ĊĠĠĠĠĠĠĠ": 8516,
      "Ã¤ki": 8517,
      "Ġalls": 8518,
      "Ġpuhd": 8519,
      "Ġpoor": 8520,
      "UP": 8521,
      "ĠitseÃ¤Ã¤n": 8522,
      "ĠThomas": 8523,
      "kast": 8524,
      "leep": 8525,
      "Ġsearch": 8526,
      "Ġresist": 8527,
      "Ġmoney": 8528,
      "Ġbetyder": 8529,
      "oria": 8530,
      "jÃ¤Ã¤n": 8531,
      "itz": 8532,
      "innassa": 8533,
      "Ġutman": 8534,
      "ĠSur": 8535,
      "Ġrunning": 8536,
      "version": 8537,
      "ĠÃ¥ka": 8538,
      "bÃ¶r": 8539,
      "umi": 8540,
      "uollon": 8541,
      "hat": 8542,
      "Ġimprove": 8543,
      "ederal": 8544,
      "ĠTi": 8545,
      "ĠStreet": 8546,
      "Ġkymmenen": 8547,
      "ĠkÃ¤vel": 8548,
      "Ġsamband": 8549,
      "ĠFrance": 8550,
      "ukas": 8551,
      "Ġfeature": 8552,
      "ĠtÃ¤Ã¤ltÃ¤": 8553,
      "ĠBill": 8554,
      "Ġkyn": 8555,
      "fan": 8556,
      "uissa": 8557,
      "Ġ1999": 8558,
      "Ġkolmen": 8559,
      "Ġsaatu": 8560,
      "ĠitsenÃ¤": 8561,
      "Kar": 8562,
      "Ġtoi": 8563,
      "ĠberÃ¤tta": 8564,
      "Ġedull": 8565,
      "itellÃ¤": 8566,
      "tÃ¤mÃ¤llÃ¤": 8567,
      "ĠihmistÃ¤": 8568,
      "ĠylÃ¤": 8569,
      "Ġwall": 8570,
      "Ġisol": 8571,
      "oted": 8572,
      "eder": 8573,
      "Ġcurrently": 8574,
      "ĠSE": 8575,
      "Ġaiv": 8576,
      "Ġautoma": 8577,
      "fs": 8578,
      "Ġhold": 8579,
      "Ġtarkast": 8580,
      "Ġadap": 8581,
      "Ġsovell": 8582,
      "Ġpsych": 8583,
      "Ġmedel": 8584,
      "efter": 8585,
      "Ġcoup": 8586,
      "Ġ65": 8587,
      "Ġsuggest": 8588,
      "sala": 8589,
      "ĠsÃ¥dan": 8590,
      "Â°": 8591,
      "Ġtyper": 8592,
      "ottomasti": 8593,
      "ava": 8594,
      "ĠSpec": 8595,
      "Ġmah": 8596,
      "Ġseems": 8597,
      "Ġproced": 8598,
      "ĠMiksi": 8599,
      "nu": 8600,
      "Ġnaur": 8601,
      "Ġdoesn": 8602,
      "Ġeconomic": 8603,
      "Ġannounced": 8604,
      "ĠMuse": 8605,
      "edagog": 8606,
      "irm": 8607,
      "elun": 8608,
      "Ġkein": 8609,
      "ĠFilm": 8610,
      "Ġformed": 8611,
      "Ġtarvits": 8612,
      "Ġsamm": 8613,
      "utuksen": 8614,
      "ĠvÃ¤nner": 8615,
      "Ġviranoma": 8616,
      "DA": 8617,
      "kg": 8618,
      "ontin": 8619,
      "ikymmen": 8620,
      "olic": 8621,
      "yte": 8622,
      "Ġaim": 8623,
      "ĠGeneral": 8624,
      "Ġtait": 8625,
      "ields": 8626,
      "idem": 8627,
      "Ġaugusti": 8628,
      "Ġwind": 8629,
      "ois": 8630,
      "yneen": 8631,
      "ĠIlm": 8632,
      "kuva": 8633,
      "kiv": 8634,
      "ĠKoul": 8635,
      "Ġkeskusta": 8636,
      "Ġnumbers": 8637,
      "ĠVe": 8638,
      "Ġfebruari": 8639,
      "ĠinnehÃ¥ll": 8640,
      "Ġkauni": 8641,
      "ĠLand": 8642,
      "Ġgreater": 8643,
      "Ġtarpeeksi": 8644,
      "Ã¤Ã¤d": 8645,
      "onents": 8646,
      "Ġolevat": 8647,
      "Ġsein": 8648,
      "ĠYrit": 8649,
      "Ġsoit": 8650,
      "Ġkuulu": 8651,
      "ĠherÃ¤t": 8652,
      "Ġrespectively": 8653,
      "ĠLund": 8654,
      "ĠÃ¤ta": 8655,
      "Ġleikka": 8656,
      "ĠmissÃ¤Ã¤n": 8657,
      "Ġvatt": 8658,
      "Ġkunta": 8659,
      "Ġemo": 8660,
      "Ġaloittaa": 8661,
      "Ġsijaitse": 8662,
      "andom": 8663,
      "Ġimmun": 8664,
      "ĠDel": 8665,
      "kinÃ¤": 8666,
      "Ġmaak": 8667,
      "Ġprogress": 8668,
      "Ġsukupuol": 8669,
      "Ġ1970": 8670,
      "Ġaloitta": 8671,
      "ancial": 8672,
      "ribe": 8673,
      "Ġurheil": 8674,
      "Ġsopiv": 8675,
      "Hels": 8676,
      "ĠArch": 8677,
      "ĠJust": 8678,
      "ĠArt": 8679,
      "Ġruok": 8680,
      "ĠanvÃ¤ndas": 8681,
      "Ġtyt": 8682,
      "Ã¤hk": 8683,
      "91": 8684,
      "Ġmaterials": 8685,
      "ityksiÃ¤": 8686,
      "Ġpotil": 8687,
      "ansson": 8688,
      "oopp": 8689,
      "Miten": 8690,
      "ĠKol": 8691,
      "Ġacqu": 8692,
      "Av": 8693,
      "ALL": 8694,
      "Ġnedan": 8695,
      "ĠpitÃ¤nyt": 8696,
      "lier": 8697,
      "Ġ08": 8698,
      "ĠGovern": 8699,
      "sii": 8700,
      "ettyÃ¤": 8701,
      "Ġjaka": 8702,
      "Ġmennyt": 8703,
      "ĠspÃ¤nnande": 8704,
      "ĠmikÃ¤li": 8705,
      "2008": 8706,
      "Ġhoitaa": 8707,
      "ĠnÃ¶d": 8708,
      "Ġjohtaa": 8709,
      "board": 8710,
      "hen": 8711,
      "lipp": 8712,
      "elÃ¤m": 8713,
      "Ġvaikkapa": 8714,
      "list": 8715,
      "ĠJumala": 8716,
      "eal": 8717,
      "VÃ¤l": 8718,
      "icity": 8719,
      "isyyttÃ¤": 8720,
      "Ġgoda": 8721,
      "Ġverrattuna": 8722,
      "come": 8723,
      "ĠfrÃ¥gan": 8724,
      "ĠChampionship": 8725,
      "Ġsyyt": 8726,
      "Ġjobba": 8727,
      "bin": 8728,
      "mission": 8729,
      "lymp": 8730,
      "ĠkÃ¤ytÃ¤nnÃ¶ssÃ¤": 8731,
      "Ġelection": 8732,
      "à¸": 8733,
      "has": 8734,
      "ternal": 8735,
      "Ġdifference": 8736,
      "Ġapprox": 8737,
      "92": 8738,
      "Ġglad": 8739,
      "ĠCouncil": 8740,
      "Ġbox": 8741,
      "ĠJees": 8742,
      "ĠmeitÃ¤": 8743,
      "Ġmonia": 8744,
      "Ġpuoli": 8745,
      "'re": 8746,
      "ĠRos": 8747,
      "vaat": 8748,
      "Ġolisin": 8749,
      "uran": 8750,
      "isissÃ¤": 8751,
      "Ġtuttu": 8752,
      "alu": 8753,
      "At": 8754,
      "Ġč": 8755,
      "Ġminuuttia": 8756,
      "Ġball": 8757,
      "bets": 8758,
      "Ġtarjolla": 8759,
      "Viime": 8760,
      "Ġtuossa": 8761,
      "Ġlan": 8762,
      "down": 8763,
      "ĠifrÃ¥n": 8764,
      "troller": 8765,
      "yksessÃ¤": 8766,
      "ĠLab": 8767,
      "Ġdat": 8768,
      "Ġgain": 8769,
      "ĠAN": 8770,
      "process": 8771,
      "hu": 8772,
      "Ġeget": 8773,
      "minister": 8774,
      "Ġgot": 8775,
      "yvÃ¤rr": 8776,
      "Ġdetal": 8777,
      "Ġlines": 8778,
      "ovat": 8779,
      "Ġhelm": 8780,
      "ately": 8781,
      "Ġbegr": 8782,
      "Ġsod": 8783,
      "SK": 8784,
      "ĠKas": 8785,
      "ĠÃ¤lskar": 8786,
      "otto": 8787,
      "Itse": 8788,
      "Ġunderstanding": 8789,
      "Ġkasvo": 8790,
      "ĠkrÃ¤vs": 8791,
      "term": 8792,
      "ĠVenÃ¤jÃ¤n": 8793,
      "Ġgol": 8794,
      "ettÃ¶m": 8795,
      "vuotia": 8796,
      "Ġmyndig": 8797,
      "bon": 8798,
      "Ġwebs": 8799,
      "BS": 8800,
      "Ġkommentteja": 8801,
      "Ġ38": 8802,
      "llei": 8803,
      "ĠfÃ¶ren": 8804,
      "selves": 8805,
      "vaihe": 8806,
      "Ġindustry": 8807,
      "Ġobtained": 8808,
      "slut": 8809,
      "................": 8810,
      "Ġhappen": 8811,
      "hood": 8812,
      "Ġkoll": 8813,
      "ĠGeorge": 8814,
      "ĠvÃ¤hÃ¤": 8815,
      "bord": 8816,
      "Ġbreak": 8817,
      "Sin": 8818,
      "Ġolisivat": 8819,
      "Ġviestin": 8820,
      "Ġinhib": 8821,
      "uhd": 8822,
      "ĠfÃ¶lja": 8823,
      "teck": 8824,
      "Ġtutus": 8825,
      "Ġperia": 8826,
      "Ġhank": 8827,
      "Ġbarnen": 8828,
      "jÃ¶itÃ¤": 8829,
      "Ġmove": 8830,
      "UST": 8831,
      "Ġpelaam": 8832,
      "Ġtutust": 8833,
      "\"\"": 8834,
      "mit": 8835,
      "ktiv": 8836,
      "][": 8837,
      "ĠRepublic": 8838,
      "Ġexpected": 8839,
      "km": 8840,
      "ĠInstitute": 8841,
      "ĠnivÃ¥": 8842,
      "ĠPak": 8843,
      "antai": 8844,
      "Ġlaj": 8845,
      "Ġnur": 8846,
      "Ġmaassa": 8847,
      "Ġeniten": 8848,
      "itect": 8849,
      "ĠigÃ¥ng": 8850,
      "alian": 8851,
      "DF": 8852,
      "Ġinitial": 8853,
      "Ġbehandling": 8854,
      "ĠanmÃ¤l": 8855,
      "ĠPlan": 8856,
      "ĠChristian": 8857,
      "ĠSport": 8858,
      "Ġpeli": 8859,
      "erings": 8860,
      "Ġuudet": 8861,
      "laa": 8862,
      "Ġkind": 8863,
      "ahti": 8864,
      "kirja": 8865,
      "ĠCanada": 8866,
      "Ġliittyy": 8867,
      "ĠCalifornia": 8868,
      "komst": 8869,
      "Ġapplication": 8870,
      "ĠDistrict": 8871,
      "alaisia": 8872,
      "****": 8873,
      "Ġscreen": 8874,
      "ums": 8875,
      "ĠvÃ¤Ã¤rin": 8876,
      "ffa": 8877,
      "Ġgoal": 8878,
      "ungin": 8879,
      "Ġpolicy": 8880,
      "Ġmetall": 8881,
      "Ġkroppen": 8882,
      "Ġfredag": 8883,
      "luvulla": 8884,
      "ostuu": 8885,
      "Ġhorm": 8886,
      "Ġvie": 8887,
      "ĠLas": 8888,
      "iske": 8889,
      "istit": 8890,
      "ĠsÃ¤ll": 8891,
      "Ġface": 8892,
      "iving": 8893,
      "Ġpic": 8894,
      "Ġohjaa": 8895,
      "ilua": 8896,
      "arily": 8897,
      "uneita": 8898,
      "Ġroligt": 8899,
      "ĠlÃ¤htien": 8900,
      "Ġaccount": 8901,
      "Ġtyyl": 8902,
      "ĠNÃ¤mÃ¤": 8903,
      "isp": 8904,
      "Ġfacil": 8905,
      "ckan": 8906,
      "Ġviisi": 8907,
      "unnassa": 8908,
      "Ġmind": 8909,
      "Ġlov": 8910,
      "tie": 8911,
      "Van": 8912,
      "ĠWashington": 8913,
      "iven": 8914,
      "Ġbetala": 8915,
      "asiassa": 8916,
      "Ġluonnoll": 8917,
      "ĠtekevÃ¤t": 8918,
      "Ġload": 8919,
      "Ġgreen": 8920,
      "ĠTav": 8921,
      "Ġparanta": 8922,
      "Ġanimals": 8923,
      "vement": 8924,
      "Ġjoutuu": 8925,
      "Ġlaul": 8926,
      "ĠOff": 8927,
      "Ġetenkin": 8928,
      "Vastaa": 8929,
      "ĠlÃ¤nder": 8930,
      "ĠtillfÃ¤ll": 8931,
      "Ġdirectly": 8932,
      "Ġlapsia": 8933,
      "ĠlÃ¶r": 8934,
      "Ġpalaut": 8935,
      "ĠlÃ¤tta": 8936,
      "Ġmie": 8937,
      "ittÃ¶m": 8938,
      "Ġtopp": 8939,
      "Ġelektr": 8940,
      "ĠEng": 8941,
      "lement": 8942,
      "rot": 8943,
      "Ġkuunt": 8944,
      "Ġstep": 8945,
      "Ġopportun": 8946,
      "ION": 8947,
      "mu": 8948,
      "ĠSel": 8949,
      "Ġtowards": 8950,
      "istrat": 8951,
      "Ġkeskustelu": 8952,
      "Ġspelare": 8953,
      "Ġdial": 8954,
      "App": 8955,
      "ato": 8956,
      "Ġthemselves": 8957,
      "etens": 8958,
      "tails": 8959,
      "ĠikinÃ¤": 8960,
      "Ġoutside": 8961,
      "intojen": 8962,
      "Ġconver": 8963,
      "Ġimag": 8964,
      "Ġsluta": 8965,
      "rix": 8966,
      "ĠSiksi": 8967,
      "tv": 8968,
      "Ġcompan": 8969,
      "ĠJew": 8970,
      "ikalla": 8971,
      "Ġjatkuu": 8972,
      "sÃ¤ttningar": 8973,
      "Ġtell": 8974,
      "Ġminska": 8975,
      "inese": 8976,
      "Ġprec": 8977,
      "Ġdomin": 8978,
      "Ġmolec": 8979,
      "Ġsaam": 8980,
      "Ġgal": 8981,
      "Ġdie": 8982,
      "arkkin": 8983,
      "ĠIsrael": 8984,
      "orp": 8985,
      "Ġlaina": 8986,
      "Ġlyss": 8987,
      "umn": 8988,
      "Ġanc": 8989,
      "ĠlÃ¤Ã¤kke": 8990,
      "Ġdic": 8991,
      "joa": 8992,
      "ryp": 8993,
      "gefÃ¤r": 8994,
      "umen": 8995,
      "Ġresa": 8996,
      "ĠAssociation": 8997,
      "kÃ¤s": 8998,
      "Ġschools": 8999,
      "Ġprivate": 9000,
      "ĠÃĸster": 9001,
      "History": 9002,
      "pereen": 9003,
      "Ġdistribution": 9004,
      "Ġcos": 9005,
      "Ġrequest": 9006,
      "ĠikÃ¤Ã¤n": 9007,
      "ĠBay": 9008,
      "eensa": 9009,
      "iht": 9010,
      "Ġkin": 9011,
      "ortti": 9012,
      "Ġpassa": 9013,
      "ĠjÃ¤tte": 9014,
      "Ġhuono": 9015,
      "Ġcontains": 9016,
      "ualla": 9017,
      "rogen": 9018,
      "ĠÃ¶r": 9019,
      "ĠAM": 9020,
      "Ġtulossa": 9021,
      "ikot": 9022,
      "Ġrecorded": 9023,
      "Ġkolman": 9024,
      "ĠUK": 9025,
      "Ġgenerally": 9026,
      "spec": 9027,
      "ĠbehÃ¶vs": 9028,
      "Ã¶ts": 9029,
      "ĠIsland": 9030,
      "Som": 9031,
      "Ġmuutenkin": 9032,
      "ĠMartin": 9033,
      "ĠBarn": 9034,
      "Ã¤nen": 9035,
      "Ġkauden": 9036,
      "istys": 9037,
      "Ġolo": 9038,
      "mÃ¥l": 9039,
      "ĠFort": 9040,
      "Be": 9041,
      "oken": 9042,
      "Ġjobbet": 9043,
      "ulan": 9044,
      "Ġyht": 9045,
      "Ġchanged": 9046,
      "Su": 9047,
      "ĠSD": 9048,
      "ĠfÃ¶rhÃ¥ll": 9049,
      "vaihto": 9050,
      "Ġnucle": 9051,
      "city": 9052,
      "alse": 9053,
      "Ġhuomattavasti": 9054,
      "Ġhimself": 9055,
      "Ġsijaitsee": 9056,
      "ĠSov": 9057,
      "Ã¤Ã¤t": 9058,
      "ĠKaup": 9059,
      "Ġqual": 9060,
      "Ġerfarenhet": 9061,
      "oida": 9062,
      "paino": 9063,
      "kyÃ¤": 9064,
      "tivity": 9065,
      "jting": 9066,
      "Ġstark": 9067,
      "ĠðŁĻ": 9068,
      "oikeus": 9069,
      "ĠfÃ¶rvÃ¤n": 9070,
      "ĠEnsimmÃ¤": 9071,
      "unnit": 9072,
      "ĠScience": 9073,
      "ĠkÃ¤yn": 9074,
      "Ġvaikutus": 9075,
      "ermine": 9076,
      "ĠDig": 9077,
      "Ġster": 9078,
      "Ġox": 9079,
      "Ġollenkaan": 9080,
      "Ġdifficult": 9081,
      "ello": 9082,
      "Ġ_": 9083,
      "Ġliiketoim": 9084,
      "juh": 9085,
      "ĠrÃ¤t": 9086,
      "Ġvuosien": 9087,
      "Ġmovement": 9088,
      "ĠBas": 9089,
      "Ġmahta": 9090,
      "ĠMax": 9091,
      "Ġtermin": 9092,
      "fly": 9093,
      "order": 9094,
      "Ġkulutta": 9095,
      "Ġsyste": 9096,
      "Ġfint": 9097,
      "Ġvem": 9098,
      "Ġkuljet": 9099,
      "ĠVÃ¥r": 9100,
      "uhun": 9101,
      "ĠSÃ¡": 9102,
      "Ġnav": 9103,
      "Ġpositiv": 9104,
      "Ġraja": 9105,
      "ĠomrÃ¥det": 9106,
      "BN": 9107,
      "llist": 9108,
      "Ġsoon": 9109,
      "Ġlaitte": 9110,
      "Ġdegree": 9111,
      "ĠSyd": 9112,
      "Ġelements": 9113,
      "Ġtietty": 9114,
      "ĠnimittÃ¤in": 9115,
      "Ġvahing": 9116,
      "Ġilmeisesti": 9117,
      "Ġmeaning": 9118,
      "jÃ¶iden": 9119,
      "rid": 9120,
      "Ġvihre": 9121,
      "atiiv": 9122,
      "Ġobject": 9123,
      "aving": 9124,
      "Ġcred": 9125,
      "Ġallerg": 9126,
      "Ġloista": 9127,
      "OC": 9128,
      "ĠfortsÃ¤tter": 9129,
      "ĠkÃ¤ns": 9130,
      "ĠProf": 9131,
      "nt": 9132,
      "tilan": 9133,
      "Ġvanlig": 9134,
      "Ġpresence": 9135,
      "Ġasunn": 9136,
      "ĠkÃ¤sittel": 9137,
      "umatta": 9138,
      "Ġselvi": 9139,
      "Ġliike": 9140,
      "Ġoppila": 9141,
      "olar": 9142,
      "ĠWil": 9143,
      "Ġproduct": 9144,
      "hoita": 9145,
      "Ġbound": 9146,
      "ĠOb": 9147,
      "ĠperÃ¤": 9148,
      "âĶ": 9149,
      "ĠTied": 9150,
      "ĠlÃ¶ys": 9151,
      "kod": 9152,
      "Ġpist": 9153,
      "Ġmechanism": 9154,
      "ensus": 9155,
      "ĠAika": 9156,
      "Ġkommentti": 9157,
      "Ġbygga": 9158,
      "Ġkanta": 9159,
      "aten": 9160,
      "tiva": 9161,
      "Ġarbetet": 9162,
      "ĠtÃ¤ynnÃ¤": 9163,
      "Ġext": 9164,
      "Ġkertom": 9165,
      "ĠInsta": 9166,
      "Ġfront": 9167,
      "69": 9168,
      "Ġluul": 9169,
      "Ġkuulla": 9170,
      "uha": 9171,
      "Ġidentified": 9172,
      "Ġproduce": 9173,
      "gric": 9174,
      "HD": 9175,
      "kÃ¤yttÃ¶": 9176,
      "Ġtheory": 9177,
      "ĠSir": 9178,
      "Ġintens": 9179,
      "Ġprobably": 9180,
      "Ġsea": 9181,
      "Ġvuokra": 9182,
      "Ġvs": 9183,
      "omo": 9184,
      "Ġsubject": 9185,
      "ĠfÃ¶rsÃ¶ka": 9186,
      "Ġparticularly": 9187,
      "stÃ¥r": 9188,
      "TS": 9189,
      "Ġaja": 9190,
      "err": 9191,
      "Ġvaad": 9192,
      "Ġmorgon": 9193,
      "Ġinfluence": 9194,
      "ilaa": 9195,
      "ĠPers": 9196,
      "ĠDessutom": 9197,
      "ĠHill": 9198,
      "Ġitselleen": 9199,
      "Ra": 9200,
      "Ġjobbar": 9201,
      "kans": 9202,
      "Ġtouko": 9203,
      "ettÃ¤nyt": 9204,
      "oneuv": 9205,
      "bre": 9206,
      "Ġehdot": 9207,
      "ĠMex": 9208,
      "Ġlimited": 9209,
      "bell": 9210,
      "Ġjuli": 9211,
      "ĠAngel": 9212,
      "innon": 9213,
      "Ġconstruction": 9214,
      "Ġjatkossa": 9215,
      "Ġdokument": 9216,
      "ĠAR": 9217,
      "Ġ1998": 9218,
      "ĠGratis": 9219,
      "build": 9220,
      "Ġkraft": 9221,
      "ompi": 9222,
      "Ġmaintain": 9223,
      "gÃ¥": 9224,
      "iiv": 9225,
      "Ġlen": 9226,
      "Ġtio": 9227,
      "itoim": 9228,
      "ĠAlthough": 9229,
      "Ġodotta": 9230,
      "char": 9231,
      "Ġoffent": 9232,
      "ĠOut": 9233,
      "Ġmother": 9234,
      "Ġtravel": 9235,
      "Ġproperty": 9236,
      "Ġlaajen": 9237,
      "ĠpÃ¤Ã¤tÃ¶s": 9238,
      "Ġkeitti": 9239,
      "Toim": 9240,
      "Ġpud": 9241,
      "lem": 9242,
      "Ġpreviously": 9243,
      "dde": 9244,
      "ĠĠĠĠĠĠ": 9245,
      "ĠkÃ¤nd": 9246,
      "ĠTex": 9247,
      "ĠRobert": 9248,
      "yin": 9249,
      "lder": 9250,
      "eline": 9251,
      "ĠSing": 9252,
      "ĠedistÃ¤": 9253,
      "Ġkohtu": 9254,
      "Poh": 9255,
      "osoit": 9256,
      "Ġ()": 9257,
      "tement": 9258,
      "--------------------------------": 9259,
      "ration": 9260,
      "Ġplus": 9261,
      "Ġmedlem": 9262,
      "uppgifter": 9263,
      "Ġpresented": 9264,
      "Ġlargest": 9265,
      "Ġstrength": 9266,
      "ĠansÃ¶k": 9267,
      "Ġhyper": 9268,
      "Ġkampan": 9269,
      "Ġskydd": 9270,
      "pack": 9271,
      "kunnan": 9272,
      "Ġraa": 9273,
      "Ġohi": 9274,
      "Ġdejt": 9275,
      "Ġlives": 9276,
      "Ã¤nnyt": 9277,
      "ikasta": 9278,
      "don": 9279,
[...]
